<unk>	0
<s>	0
</s>	0
<pad>	0
<0x00>	0
<0x01>	0
<0x02>	0
<0x03>	0
<0x04>	0
<0x05>	0
<0x06>	0
<0x07>	0
<0x08>	0
<0x09>	0
<0x0A>	0
<0x0B>	0
<0x0C>	0
<0x0D>	0
<0x0E>	0
<0x0F>	0
<0x10>	0
<0x11>	0
<0x12>	0
<0x13>	0
<0x14>	0
<0x15>	0
<0x16>	0
<0x17>	0
<0x18>	0
<0x19>	0
<0x1A>	0
<0x1B>	0
<0x1C>	0
<0x1D>	0
<0x1E>	0
<0x1F>	0
<0x20>	0
<0x21>	0
<0x22>	0
<0x23>	0
<0x24>	0
<0x25>	0
<0x26>	0
<0x27>	0
<0x28>	0
<0x29>	0
<0x2A>	0
<0x2B>	0
<0x2C>	0
<0x2D>	0
<0x2E>	0
<0x2F>	0
<0x30>	0
<0x31>	0
<0x32>	0
<0x33>	0
<0x34>	0
<0x35>	0
<0x36>	0
<0x37>	0
<0x38>	0
<0x39>	0
<0x3A>	0
<0x3B>	0
<0x3C>	0
<0x3D>	0
<0x3E>	0
<0x3F>	0
<0x40>	0
<0x41>	0
<0x42>	0
<0x43>	0
<0x44>	0
<0x45>	0
<0x46>	0
<0x47>	0
<0x48>	0
<0x49>	0
<0x4A>	0
<0x4B>	0
<0x4C>	0
<0x4D>	0
<0x4E>	0
<0x4F>	0
<0x50>	0
<0x51>	0
<0x52>	0
<0x53>	0
<0x54>	0
<0x55>	0
<0x56>	0
<0x57>	0
<0x58>	0
<0x59>	0
<0x5A>	0
<0x5B>	0
<0x5C>	0
<0x5D>	0
<0x5E>	0
<0x5F>	0
<0x60>	0
<0x61>	0
<0x62>	0
<0x63>	0
<0x64>	0
<0x65>	0
<0x66>	0
<0x67>	0
<0x68>	0
<0x69>	0
<0x6A>	0
<0x6B>	0
<0x6C>	0
<0x6D>	0
<0x6E>	0
<0x6F>	0
<0x70>	0
<0x71>	0
<0x72>	0
<0x73>	0
<0x74>	0
<0x75>	0
<0x76>	0
<0x77>	0
<0x78>	0
<0x79>	0
<0x7A>	0
<0x7B>	0
<0x7C>	0
<0x7D>	0
<0x7E>	0
<0x7F>	0
<0x80>	0
<0x81>	0
<0x82>	0
<0x83>	0
<0x84>	0
<0x85>	0
<0x86>	0
<0x87>	0
<0x88>	0
<0x89>	0
<0x8A>	0
<0x8B>	0
<0x8C>	0
<0x8D>	0
<0x8E>	0
<0x8F>	0
<0x90>	0
<0x91>	0
<0x92>	0
<0x93>	0
<0x94>	0
<0x95>	0
<0x96>	0
<0x97>	0
<0x98>	0
<0x99>	0
<0x9A>	0
<0x9B>	0
<0x9C>	0
<0x9D>	0
<0x9E>	0
<0x9F>	0
<0xA0>	0
<0xA1>	0
<0xA2>	0
<0xA3>	0
<0xA4>	0
<0xA5>	0
<0xA6>	0
<0xA7>	0
<0xA8>	0
<0xA9>	0
<0xAA>	0
<0xAB>	0
<0xAC>	0
<0xAD>	0
<0xAE>	0
<0xAF>	0
<0xB0>	0
<0xB1>	0
<0xB2>	0
<0xB3>	0
<0xB4>	0
<0xB5>	0
<0xB6>	0
<0xB7>	0
<0xB8>	0
<0xB9>	0
<0xBA>	0
<0xBB>	0
<0xBC>	0
<0xBD>	0
<0xBE>	0
<0xBF>	0
<0xC0>	0
<0xC1>	0
<0xC2>	0
<0xC3>	0
<0xC4>	0
<0xC5>	0
<0xC6>	0
<0xC7>	0
<0xC8>	0
<0xC9>	0
<0xCA>	0
<0xCB>	0
<0xCC>	0
<0xCD>	0
<0xCE>	0
<0xCF>	0
<0xD0>	0
<0xD1>	0
<0xD2>	0
<0xD3>	0
<0xD4>	0
<0xD5>	0
<0xD6>	0
<0xD7>	0
<0xD8>	0
<0xD9>	0
<0xDA>	0
<0xDB>	0
<0xDC>	0
<0xDD>	0
<0xDE>	0
<0xDF>	0
<0xE0>	0
<0xE1>	0
<0xE2>	0
<0xE3>	0
<0xE4>	0
<0xE5>	0
<0xE6>	0
<0xE7>	0
<0xE8>	0
<0xE9>	0
<0xEA>	0
<0xEB>	0
<0xEC>	0
<0xED>	0
<0xEE>	0
<0xEF>	0
<0xF0>	0
<0xF1>	0
<0xF2>	0
<0xF3>	0
<0xF4>	0
<0xF5>	0
<0xF6>	0
<0xF7>	0
<0xF8>	0
<0xF9>	0
<0xFA>	0
<0xFB>	0
<0xFC>	0
<0xFD>	0
<0xFE>	0
<0xFF>	0
an	-0
▁b	-1
▁k	-2
ri	-3
mu	-4
ra	-5
▁n	-6
ya	-7
▁i	-8
▁a	-9
ga	-10
wa	-11
ba	-12
▁mu	-13
re	-14
sh	-15
▁u	-16
▁ku	-17
ye	-18
ko	-19
ma	-20
gi	-21
▁ba	-22
in	-23
we	-24
za	-25
ka	-26
yo	-27
gu	-28
ru	-29
zi	-30
bi	-31
▁ya	-32
ge	-33
ta	-34
bu	-35
te	-36
yi	-37
tu	-38
ha	-39
go	-40
bo	-41
ze	-42
and	-43
▁bi	-44
ki	-45
se	-46
ro	-47
si	-48
ho	-49
▁ko	-50
▁gu	-51
wi	-52
▁c	-53
me	-54
ku	-55
mi	-56
ti	-57
ana	-58
▁M	-59
▁A	-60
vu	-61
▁y	-62
▁wa	-63
▁na	-64
▁r	-65
wo	-66
da	-67
▁K	-68
hu	-69
mo	-70
je	-71
yu	-72
▁I	-73
sha	-74
he	-75
anga	-76
be	-77
▁N	-78
▁U	-79
▁R	-80
▁umu	-81
▁muri	-82
▁m	-83
yan	-84
▁bu	-85
rwa	-86
▁ha	-87
sa	-88
anda	-89
shi	-90
▁in	-91
ban	-92
fa	-93
▁aba	-94
andi	-95
▁B	-96
de	-97
▁ari	-98
▁ubu	-99
li	-100
▁ama	-101
mwe	-102
zo	-103
ke	-104
ran	-105
▁gi	-106
▁ibi	-107
tse	-108
di	-109
gira	-110
▁Mu	-111
▁ni	-112
▁w	-113
to	-114
wanda	-115
fi	-116
so	-117
du	-118
tan	-119
▁im	-120
nge	-121
▁ru	-122
gan	-123
ne	-124
bere	-125
▁zi	-126
▁ki	-127
▁ngo	-128
▁G	-129
mba	-130
sho	-131
▁ka	-132
kore	-133
na	-134
hi	-135
▁bya	-136
twa	-137
▁yo	-138
vuga	-139
kin	-140
▁no	-141
gara	-142
▁S	-143
▁ma	-144
zwe	-145
▁P	-146
bwo	-147
▁Rwanda	-148
shin	-149
▁cyan	-150
fu	-151
aba	-152
▁kandi	-153
▁ib	-154
▁kwi	-155
hugu	-156
ama	-157
fite	-158
▁cya	-159
en	-160
kuru	-161
gen	-162
umu	-163
ubu	-164
▁(	-165
kan	-166
gwa	-167
zu	-168
▁C	-169
rere	-170
▁kuri	-171
han	-172
▁“	-173
cu	-174
▁Y	-175
▁igi	-176
kome	-177
va	-178
yobo	-179
▁Ka	-180
▁tu	-181
su	-182
▁iki	-183
▁Umu	-184
bwa	-185
▁kuba	-186
giye	-187
▁by	-188
shyi	-189
rimo	-190
shu	-191
kora	-192
tanga	-193
▁T	-194
san	-195
nga	-196
▁za	-197
nda	-198
shobo	-199
men	-200
do	-201
ryo	-202
riki	-203
▁nde	-204
▁yi	-205
▁mi	-206
▁ic	-207
▁uru	-208
▁imi	-209
kaba	-210
▁z	-211
korwa	-212
▁we	-213
▁kuko	-214
▁nta	-215
rika	-216
ts	-217
▁J	-218
ibi	-219
pe	-220
mbi	-221
▁bwa	-222
▁D	-223
▁ndetse	-224
▁ri	-225
▁bw	-226
▁H	-227
ci	-228
yuma	-229
▁aho	-230
▁cy	-231
▁ariko	-232
jwe	-233
tsi	-234
ini	-235
▁L	-236
rage	-237
yama	-238
le	-239
ce	-240
jya	-241
▁cyane	-242
ngo	-243
▁F	-244
tege	-245
▁aban	-246
yobozi	-247
hin	-248
▁ga	-249
▁bo	-250
bwi	-251
▁gihe	-252
▁nk	-253
ni	-254
▁byo	-255
▁ati	-256
▁Aba	-257
riye	-258
pa	-259
vi	-260
▁Ki	-261
yaka	-262
bye	-263
ngu	-264
▁kugira	-265
wan	-266
hanga	-267
garaga	-268
▁Bu	-269
mana	-270
uko	-271
yango	-272
▁rya	-273
▁hari	-274
ira	-275
mbo	-276
ntu	-277
▁Ma	-278
gize	-279
she	-280
▁ry	-281
▁yari	-282
biri	-283
bera	-284
turage	-285
▁bari	-286
indi	-287
▁aka	-288
im	-289
bazo	-290
zwa	-291
▁rwa	-292
ryango	-293
shuri	-294
shobora	-295
rana	-296
▁E	-297
po	-298
▁um	-299
andu	-300
bona	-301
rezi	-302
kanye	-303
tera	-304
▁du	-305
▁uko	-306
ca	-307
▁cyangwa	-308
gera	-309
vuze	-310
la	-311
▁avuga	-312
eza	-313
▁mbere	-314
▁Ni	-315
ndi	-316
▁Ku	-317
waka	-318
▁rw	-319
▁Ru	-320
.”	-321
▁uyu	-322
ranga	-323
yin	-324
um	-325
bana	-326
▁bwo	-327
▁Ga	-328
kwi	-329
shaka	-330
ngera	-331
fasha	-332
▁abantu	-333
tsin	-334
▁ibyo	-335
▁cyo	-336
▁Pe	-337
igi	-338
gabo	-339
▁wo	-340
▁nyuma	-341
▁iyo	-342
kira	-343
zima	-344
kana	-345
on	-346
maze	-347
tandu	-348
▁neza	-349
▁Ya	-350
rira	-351
▁ye	-352
man	-353
byi	-354
tara	-355
▁Ba	-356
bya	-357
uru	-358
rwanda	-359
rezida	-360
shya	-361
wu	-362
reza	-363
▁buryo	-364
▁nti	-365
ve	-366
▁twa	-367
▁icyo	-368
pi	-369
yarwanda	-370
mbu	-371
▁Le	-372
▁Ha	-373
ciro	-374
ruka	-375
ngan	-376
▁ubwo	-377
nye	-378
bandi	-379
kuriki	-380
pu	-381
kino	-382
gana	-383
gore	-384
riza	-385
faranga	-386
▁In	-387
▁zo	-388
jye	-389
baye	-390
saba	-391
wego	-392
▁t	-393
imi	-394
tandukanye	-395
byo	-396
fo	-397
Umu	-398
▁aga	-399
gali	-400
tegeko	-401
geze	-402
▁Perezida	-403
tariki	-404
nsi	-405
▁wi	-406
tuma	-407
komeza	-408
gomba	-409
▁Nya	-410
nze	-411
▁Ye	-412
▁ban	-413
renge	-414
shimi	-415
▁imbere	-416
▁igihe	-417
ji	-418
shyira	-419
”.	-420
co	-421
▁Ubu	-422
osi	-423
gura	-424
menye	-425
wanya	-426
shinzwe	-427
▁mwaka	-428
shwa	-429
▁iyi	-430
▁Pa	-431
gani	-432
lo	-433
Ubu	-434
subi	-435
▁Leta	-436
banu	-437
▁Kigali	-438
ja	-439
ani	-440
bone	-441
inisi	-442
wana	-443
▁"	-444
▁se	-445
oside	-446
geza	-447
bwe	-448
▁Gi	-449
▁bara	-450
▁buri	-451
▁kwa	-452
tum	-453
▁ata	-454
sanzwe	-455
▁baka	-456
▁bita	-457
▁kubera	-458
yamakuru	-459
cya	-460
nyi	-461
▁yavuze	-462
▁baba	-463
ina	-464
zira	-465
guru	-466
curu	-467
Aba	-468
cyo	-469
koresha	-470
▁W	-471
▁bata	-472
▁aha	-473
rero	-474
jyan	-475
ranye	-476
▁gusa	-477
raga	-478
iki	-479
▁gukora	-480
komeye	-481
▁iri	-482
zaba	-483
▁Ko	-484
fatan	-485
▁Jen	-486
ine	-487
shinga	-488
▁uku	-489
▁Co	-490
).	-491
enshi	-492
ubwo	-493
teke	-494
kwa	-495
▁V	-496
▁nka	-497
▁Jenoside	-498
ganda	-499
▁akaba	-500
furika	-501
twe	-502
korera	-503
shan	-504
sanga	-505
garagaza	-506
intu	-507
▁tariki	-508
no	-509
▁byi	-510
koze	-511
▁Ati	-512
▁Gu	-513
▁rwo	-514
▁rwego	-515
kiri	-516
bura	-517
sobanu	-518
tutsi	-519
▁Umun	-520
yeme	-521
▁Bi	-522
rwe	-523
▁gihugu	-524
▁haga	-525
▁Minisi	-526
tiri	-527
aban	-528
▁abaturage	-529
fata	-530
▁han	-531
hunda	-532
komeje	-533
zamu	-534
▁umuntu	-535
▁be	-536
mbere	-537
ndo	-538
▁uwo	-539
ib	-540
▁munsi	-541
pam	-542
tangiye	-543
jyi	-544
genda	-545
korana	-546
▁‘	-547
▁ara	-548
shije	-549
jyanye	-550
kene	-551
▁gahunda	-552
inshi	-553
▁hamwe	-554
teri	-555
▁umwe	-556
▁bafite	-557
mbe	-558
▁benshi	-559
▁abana	-560
▁kwe	-561
▁yara	-562
),	-563
▁Ibi	-564
gihugu	-565
zama	-566
tegan	-567
ngi	-568
kiko	-569
..	-570
shyu	-571
tsinda	-572
▁amafaranga	-573
rya	-574
seze	-575
▁guha	-576
▁Ama	-577
kura	-578
el	-579
▁baga	-580
▁Re	-581
tin	-582
yoni	-583
reke	-584
▁O	-585
▁harimo	-586
genzi	-587
▁baha	-588
▁Muri	-589
▁imyaka	-590
▁Aban	-591
zuba	-592
karere	-593
▁baza	-594
▁Po	-595
▁mili	-596
mari	-597
▁bikorwa	-598
▁ibya	-599
hova	-600
▁Mi	-601
▁kugeza	-602
▁abi	-603
rasi	-604
▁byose	-605
gari	-606
pamvu	-607
kinnyi	-608
▁Yehova	-609
▁gute	-610
igihugu	-611
hindu	-612
tangira	-613
▁wari	-614
▁Sa	-615
renga	-616
dwa	-617
shize	-618
▁afite	-619
riko	-620
▁hagati	-621
rutse	-622
▁abo	-623
mva	-624
▁bose	-625
tangi	-626
kobwa	-627
▁.	-628
rezo	-629
▁bwi	-630
bwira	-631
er	-632
buga	-633
▁kuva	-634
hora	-635
▁bite	-636
▁e	-637
byeyi	-638
▁Afurika	-639
lisi	-640
pfu	-641
▁uburyo	-642
▁kure	-643
insi	-644
menya	-645
hare	-646
tabi	-647
▁abandi	-648
▁Abatutsi	-649
tego	-650
gisha	-651
tare	-652
ham	-653
▁aza	-654
garagara	-655
tero	-656
ano	-657
▁ho	-658
▁yaba	-659
bonye	-660
kozi	-661
▁Se	-662
▁si	-663
Mu	-664
tatu	-665
kwiye	-666
zego	-667
nzi	-668
Ama	-669
game	-670
tangaje	-671
reye	-672
taka	-673
▁kubi	-674
▁ibikorwa	-675
gano	-676
hinzi	-677
▁@	-678
imyaka	-679
kano	-680
ter	-681
kina	-682
rusha	-683
▁Umunyamakuru	-684
▁kumu	-685
sirika	-686
▁ahu	-687
ganiro	-688
humbi	-689
tanu	-690
sange	-691
ou	-692
teka	-693
▁Kagame	-694
kunda	-695
yuba	-696
nde	-697
▁Je	-698
▁Uru	-699
yije	-700
bare	-701
yana	-702
▁Na	-703
▁yakore	-704
gero	-705
ruko	-706
tekano	-707
terambere	-708
sin	-709
hita	-710
zan	-711
▁kw	-712
▁gutanga	-713
nd	-714
siga	-715
twara	-716
merika	-717
ande	-718
riro	-719
rengan	-720
▁biga	-721
In	-722
banza	-723
abandi	-724
▁bavuga	-725
▁cyi	-726
shwe	-727
▁he	-728
moka	-729
curuzi	-730
▁Karere	-731
soko	-732
▁uruhare	-733
rano	-734
▁Umuyobozi	-735
byiruko	-736
mera	-737
▁kabiri	-738
sirikare	-739
ju	-740
saru	-741
▁byinshi	-742
min	-743
jo	-744
▁Minisitiri	-745
▁iza	-746
▁Z	-747
yinshi	-748
garuka	-749
▁Ra	-750
ywa	-751
vuye	-752
guye	-753
▁kubona	-754
PR	-755
▁iz	-756
▁ikibazo	-757
tyo	-758
▁mpu	-759
▁bin	-760
gendo	-761
rije	-762
gaban	-763
▁Iki	-764
rera	-765
Igihugu	-766
▁Imana	-767
▁ibintu	-768
▁karere	-769
horo	-770
buhanga	-771
tuye	-772
▁icya	-773
ll	-774
rangi	-775
▁imba	-776
▁miliyoni	-777
▁maze	-778
pfo	-779
kiye	-780
rire	-781
banga	-782
▁Jean	-783
▁rero	-784
saruro	-785
▁kujya	-786
▁rusange	-787
▁kimwe	-788
gere	-789
st	-790
rani	-791
tora	-792
uza	-793
mwa	-794
tari	-795
sanze	-796
gami	-797
rane	-798
mweru	-799
handa	-800
▁bamwe	-801
▁Dr	-802
fuza	-803
menyi	-804
▁ikipe	-805
jyana	-806
hise	-807
ane	-808
tso	-809
mbwa	-810
koranabuhanga	-811
▁niba	-812
▁biri	-813
▁ubuzima	-814
▁ahubwo	-815
mye	-816
▁isi	-817
tungo	-818
bwiye	-819
sira	-820
kwe	-821
▁babi	-822
abantu	-823
sezerano	-824
hanzi	-825
sabye	-826
▁hafi	-827
▁nko	-828
▁yabo	-829
tumwa	-830
ywe	-831
zamahanga	-832
poro	-833
mbye	-834
yumweru	-835
fashe	-836
▁ur	-837
taba	-838
ibindi	-839
yeshuri	-840
tumye	-841
▁ibibazo	-842
dwara	-843
nya	-844
▁biza	-845
▁yagize	-846
diri	-847
minuza	-848
ris	-849
▁ryo	-850
▁ntabwo	-851
mvi	-852
gingo	-853
▁yose	-854
abaturage	-855
▁yaha	-856
twi	-857
tion	-858
▁ahan	-859
▁ikin	-860
siyo	-861
renganzira	-862
tswe	-863
rwanya	-864
meza	-865
▁amakuru	-866
shobozi	-867
rinda	-868
▁igihugu	-869
▁bihugu	-870
shanwa	-871
ranya	-872
garagaje	-873
vugwa	-874
▁bamu	-875
doka	-876
▁twi	-877
koresho	-878
▁yakorewe	-879
▁myaka	-880
▁Tu	-881
tanda	-882
▁bakaba	-883
koreshwa	-884
yiza	-885
modoka	-886
or	-887
▁Yagize	-888
tegetsi	-889
shimira	-890
▁umwana	-891
yon	-892
▁imp	-893
▁kubu	-894
liya	-895
▁Iyo	-896
ic	-897
zwi	-898
fashi	-899
▁hi	-900
ota	-901
rivi	-902
zweho	-903
gamba	-904
yandi	-905
▁kugera	-906
▁bitandukanye	-907
▁inama	-908
bereye	-909
riwe	-910
tekerezo	-911
bikorwa	-912
shyin	-913
koreshe	-914
shingano	-915
fati	-916
▁biba	-917
▁FC	-918
mp	-919
kije	-920
▁barimo	-921
mira	-922
shatsi	-923
shyirwa	-924
Aban	-925
retse	-926
▁iba	-927
cyaha	-928
▁Si	-929
shakashatsi	-930
▁rwi	-931
kungu	-932
▁uwa	-933
rt	-934
▁ika	-935
kubi	-936
▁yan	-937
juru	-938
▁uri	-939
▁wese	-940
liti	-941
ul	-942
▁ufite	-943
▁,	-944
gende	-945
▁Hari	-946
al	-947
shami	-948
▁po	-949
huza	-950
fe	-951
▁Igi	-952
▁mpuzamahanga	-953
mbara	-954
▁serivi	-955
▁de	-956
kozwe	-957
▁Mo	-958
▁naho	-959
qu	-960
veri	-961
rirwa	-962
shuro	-963
▁umusaruro	-964
▁ifite	-965
pera	-966
mbuye	-967
aga	-968
goro	-969
yijwe	-970
▁Amerika	-971
muga	-972
▁kibazo	-973
▁Jo	-974
ire	-975
shingiye	-976
shyize	-977
AN	-978
▁bana	-979
▁gushyira	-980
▁muntu	-981
kunga	-982
▁bahu	-983
fatanya	-984
teye	-985
hamya	-986
vura	-987
fun	-988
▁ayo	-989
ranira	-990
soho	-991
mwi	-992
buka	-993
▁kuza	-994
tandatu	-995
rd	-996
lika	-997
gene	-998
▁witwa	-999
gizi	-1000
▁nyinshi	-1001
ganga	-1002
▁Nyuma	-1003
▁ibihumbi	-1004
Ku	-1005
swa	-1006
tanze	-1007
▁Buru	-1008
▁Uyu	-1009
reba	-1010
▁Uganda	-1011
tima	-1012
▁birimo	-1013
▁agira	-1014
▁akazi	-1015
kemu	-1016
hana	-1017
rw	-1018
kombe	-1019
rongo	-1020
▁bijyanye	-1021
yaga	-1022
▁bira	-1023
yongera	-1024
yuze	-1025
mere	-1026
yungu	-1027
▁To	-1028
fungu	-1029
shinja	-1030
▁yu	-1031
▁hanze	-1032
▁te	-1033
suzu	-1034
hirwe	-1035
▁kugi	-1036
▁Abanyarwanda	-1037
▁bityo	-1038
▁mpamvu	-1039
▁batu	-1040
aho	-1041
▁serivisi	-1042
▁haba	-1043
▁fi	-1044
▁bagiye	-1045
bwiriza	-1046
▁byari	-1047
hango	-1048
toza	-1049
riya	-1050
herere	-1051
▁aya	-1052
Ni	-1053
gerage	-1054
▁Nta	-1055
▁bamaze	-1056
▁amu	-1057
horaho	-1058
shye	-1059
▁muryango	-1060
sore	-1061
rushanwa	-1062
▁nda	-1063
▁Da	-1064
▁Ibyo	-1065
▁Polisi	-1066
shimiye	-1067
fatanye	-1068
▁imbaraga	-1069
▁Me	-1070
ngereza	-1071
▁imwe	-1072
mara	-1073
▁Komi	-1074
▁ushinzwe	-1075
▁De	-1076
kipe	-1077
kuba	-1078
▁izo	-1079
lle	-1080
ss	-1081
▁kubaka	-1082
ngeye	-1083
mini	-1084
uka	-1085
hoze	-1086
▁icyi	-1087
▁bakora	-1088
▁ira	-1089
▁Congo	-1090
genga	-1091
▁Di	-1092
ur	-1093
yobora	-1094
▁Bo	-1095
▁nama	-1096
ganira	-1097
▁kurusha	-1098
haye	-1099
▁sa	-1100
▁mwi	-1101
hamwe	-1102
genzu	-1103
▁mwanya	-1104
van	-1105
▁bantu	-1106
▁amazi	-1107
▁Ca	-1108
iz	-1109
hera	-1110
▁mukuru	-1111
▁yabi	-1112
▁rimwe	-1113
shyamba	-1114
yemezo	-1115
▁bwe	-1116
siye	-1117
▁o	-1118
."	-1119
▁babo	-1120
ransa	-1121
bereho	-1122
kazi	-1123
ibyo	-1124
rizwa	-1125
▁atari	-1126
pfa	-1127
▁ishuri	-1128
shyura	-1129
▁kumenya	-1130
▁bazi	-1131
meze	-1132
▁kuyi	-1133
▁kin	-1134
Akarere	-1135
▁Gicu	-1136
tsinze	-1137
▁[	-1138
▁cye	-1139
habwa	-1140
tekereza	-1141
▁bituma	-1142
hagara	-1143
▁nya	-1144
umva	-1145
▁gukomeza	-1146
▁amaze	-1147
▁wu	-1148
kikije	-1149
pira	-1150
zere	-1151
gambo	-1152
banze	-1153
▁mukino	-1154
isi	-1155
▁izi	-1156
boneka	-1157
keneye	-1158
faransa	-1159
▁bitewe	-1160
▁Spo	-1161
hura	-1162
▁bika	-1163
ruguru	-1164
▁kigo	-1165
teko	-1166
▁ubwi	-1167
can	-1168
▁ibiri	-1169
▁iterambere	-1170
gije	-1171
here	-1172
▁gukoresha	-1173
▁bikaba	-1174
...	-1175
▁uza	-1176
shora	-1177
dirimbo	-1178
▁kongera	-1179
▁Minisiteri	-1180
▁none	-1181
tewe	-1182
anjye	-1183
▁isoko	-1184
▁ubushobozi	-1185
terwa	-1186
▁kwiga	-1187
▁Ban	-1188
▁baki	-1189
▁kurwanya	-1190
sabwa	-1191
enya	-1192
▁-	-1193
metero	-1194
mbaga	-1195
reka	-1196
abana	-1197
▁nabi	-1198
shoboka	-1199
▁nawe	-1200
▁umutekano	-1201
pubu	-1202
▁yatangaje	-1203
IN	-1204
ry	-1205
▁agaciro	-1206
shoboye	-1207
tsa	-1208
hari	-1209
▁rugo	-1210
▁Murenge	-1211
▁Ubwo	-1212
hariko	-1213
yira	-1214
jambo	-1215
que	-1216
▁guteza	-1217
▁umuyobozi	-1218
▁umuryango	-1219
▁umwanya	-1220
▁nzi	-1221
gire	-1222
rwan	-1223
paka	-1224
▁uburenganzira	-1225
rts	-1226
▁umun	-1227
zuro	-1228
tungan	-1229
somo	-1230
▁Iyi	-1231
▁nubwo	-1232
▁Repubu	-1233
▁gufasha	-1234
maro	-1235
baza	-1236
tegu	-1237
▁kwezi	-1238
vandi	-1239
▁Yo	-1240
vandimwe	-1241
▁We	-1242
rimu	-1243
rwayi	-1244
▁uka	-1245
▁bati	-1246
kanga	-1247
▁Mata	-1248
fatwa	-1249
rozi	-1250
umwi	-1251
▁ikaba	-1252
reme	-1253
shyigi	-1254
▁imirimo	-1255
dugu	-1256
▁umugore	-1257
▁Nda	-1258
jira	-1259
▁gito	-1260
▁gufata	-1261
AR	-1262
saga	-1263
noma	-1264
mena	-1265
dukikije	-1266
mezi	-1267
verinoma	-1268
inji	-1269
▁iminsi	-1270
▁ahantu	-1271
abi	-1272
▁Ariko	-1273
dugudu	-1274
nshi	-1275
sobanura	-1276
teza	-1277
▁myiza	-1278
teganyijwe	-1279
▁ivuga	-1280
ibiliya	-1281
tive	-1282
kunze	-1283
▁hejuru	-1284
▁mujyi	-1285
▁umwu	-1286
▁Repubulika	-1287
▁men	-1288
kundo	-1289
sura	-1290
▁ubwa	-1291
mpi	-1292
Iki	-1293
indu	-1294
giza	-1295
▁Bibiliya	-1296
sozi	-1297
yamabanga	-1298
buye	-1299
▁buzima	-1300
yabu	-1301
litiki	-1302
menyetso	-1303
torero	-1304
komoka	-1305
▁Paul	-1306
▁do	-1307
Ya	-1308
▁Al	-1309
saha	-1310
day	-1311
tura	-1312
razi	-1313
▁bigo	-1314
▁ibyaha	-1315
Ibi	-1316
▁s	-1317
▁Su	-1318
▁bada	-1319
▁gatatu	-1320
ndu	-1321
▁zose	-1322
shanya	-1323
▁menshi	-1324
twaye	-1325
garu	-1326
▁zitandukanye	-1327
▁kuzi	-1328
imari	-1329
▁ikoranabuhanga	-1330
rayi	-1331
tangaza	-1332
ubuzima	-1333
mbwe	-1334
nal	-1335
▁uta	-1336
uyu	-1337
fashwe	-1338
tabo	-1339
bwenge	-1340
sigaye	-1341
▁Ro	-1342
kurikirana	-1343
▁No	-1344
subiza	-1345
▁Kenya	-1346
▁ubuyobozi	-1347
hande	-1348
▁Nyama	-1349
shyaka	-1350
▁Sports	-1351
▁bihe	-1352
yona	-1353
▁gutera	-1354
ibihugu	-1355
pite	-1356
▁impamvu	-1357
▁ze	-1358
▁yabaye	-1359
▁Imi	-1360
▁baturage	-1361
▁Ikin	-1362
gamije	-1363
hereza	-1364
▁izina	-1365
▁ashobora	-1366
▁urubyiruko	-1367
yumba	-1368
abo	-1369
subira	-1370
guri	-1371
kire	-1372
▁gushaka	-1373
kera	-1374
hungu	-1375
manota	-1376
▁mo	-1377
▁saa	-1378
umuryango	-1379
hano	-1380
amategeko	-1381
▁impu	-1382
kirwa	-1383
yari	-1384
▁APR	-1385
▁amahirwe	-1386
▁le	-1387
is	-1388
ty	-1389
▁ra	-1390
▁Komisiyo	-1391
zana	-1392
▁ryi	-1393
yine	-1394
vo	-1395
banda	-1396
bunga	-1397
BC	-1398
tanye	-1399
▁ingu	-1400
rengera	-1401
rekana	-1402
▁bagomba	-1403
▁uba	-1404
hawe	-1405
▁Af	-1406
▁Icyo	-1407
▁ingaruka	-1408
▁ntiba	-1409
▁bye	-1410
Imana	-1411
▁bato	-1412
lu	-1413
handi	-1414
amafaranga	-1415
▁twe	-1416
▁bimwe	-1417
korerwa	-1418
▁imyi	-1419
foto	-1420
yandiko	-1421
taramo	-1422
▁bacu	-1423
▁mashuri	-1424
shuti	-1425
hangana	-1426
▁bida	-1427
gizwe	-1428
▁umwaka	-1429
▁itariki	-1430
▁usanga	-1431
▁tura	-1432
rango	-1433
ck	-1434
ID	-1435
▁indwara	-1436
▁Te	-1437
▁inzu	-1438
Uru	-1439
▁bajya	-1440
▁nzu	-1441
senge	-1442
ch	-1443
jije	-1444
▁kwirinda	-1445
sumbuye	-1446
bin	-1447
▁ugu	-1448
kurikira	-1449
▁amategeko	-1450
▁abanyeshuri	-1451
▁inda	-1452
▁The	-1453
▁iryo	-1454
".	-1455
shishi	-1456
tabira	-1457
▁umukino	-1458
haga	-1459
▁Burundi	-1460
rimi	-1461
yemo	-1462
ranyije	-1463
▁Agira	-1464
joro	-1465
RA	-1466
ganwa	-1467
wami	-1468
▁yakoze	-1469
perative	-1470
▁Musanze	-1471
tarama	-1472
▁yaje	-1473
▁bishobora	-1474
▁yamu	-1475
▁Du	-1476
ubwi	-1477
▁inyuma	-1478
▁uga	-1479
▁kumwe	-1480
▁indi	-1481
ent	-1482
hindura	-1483
tangwa	-1484
▁ita	-1485
▁mp	-1486
▁Icya	-1487
▁bagenzi	-1488
▁inkunga	-1489
▁Ja	-1490
Abanyarwanda	-1491
▁Im	-1492
tabera	-1493
▁ada	-1494
▁Gicurasi	-1495
shinjacyaha	-1496
zani	-1497
▁yombi	-1498
▁ndi	-1499
ria	-1500
▁bashobora	-1501
roko	-1502
▁turi	-1503
▁inshingano	-1504
umwihariko	-1505
▁iga	-1506
girwa	-1507
th	-1508
▁yatangiye	-1509
shanyarazi	-1510
▁abagore	-1511
zera	-1512
▁tele	-1513
▁gikorwa	-1514
▁Kaminuza	-1515
DC	-1516
▁kwita	-1517
▁minsi	-1518
rin	-1519
▁nzego	-1520
▁hose	-1521
▁Avuga	-1522
igihe	-1523
▁itanga	-1524
vugizi	-1525
▁kuvuga	-1526
▁hano	-1527
▁yandi	-1528
▁rwe	-1529
▁icyaha	-1530
▁Fa	-1531
icyo	-1532
yumvi	-1533
▁Rayon	-1534
▁yitwa	-1535
▁abayobozi	-1536
gabane	-1537
▁an	-1538
hinda	-1539
▁mun	-1540
▁yabwiye	-1541
▁mikino	-1542
vutse	-1543
lime	-1544
▁ako	-1545
jyaruguru	-1546
renze	-1547
▁nibwo	-1548
▁mutwe	-1549
▁pa	-1550
pfuye	-1551
▁gace	-1552
▁kaminuza	-1553
▁Go	-1554
▁byiza	-1555
rie	-1556
▁Kamena	-1557
zamakuru	-1558
▁umugabo	-1559
jwi	-1560
reje	-1561
▁cyose	-1562
▁babiri	-1563
koresheje	-1564
il	-1565
▁dufite	-1566
subizo	-1567
▁Today	-1568
▁ngombwa	-1569
▁Rwa	-1570
▁amasezerano	-1571
▁Ngo	-1572
dege	-1573
▁ibikoresho	-1574
zuye	-1575
▁ibindi	-1576
▁mwa	-1577
kuri	-1578
nyu	-1579
▁Kuri	-1580
▁azi	-1581
▁wabo	-1582
tegura	-1583
▁byaba	-1584
shishika	-1585
hinga	-1586
▁Yesu	-1587
iyo	-1588
mbura	-1589
manu	-1590
yiri	-1591
▁Nyakanga	-1592
▁aki	-1593
gambi	-1594
kanya	-1595
rangira	-1596
▁ubumuga	-1597
▁of	-1598
▁imikino	-1599
twari	-1600
anuka	-1601
anone	-1602
▁ke	-1603
▁amashuri	-1604
▁ababyeyi	-1605
▁So	-1606
ing	-1607
▁kiri	-1608
▁Hu	-1609
basha	-1610
buto	-1611
kara	-1612
▁binyuze	-1613
▁zirimo	-1614
akarere	-1615
turutse	-1616
▁cyumweru	-1617
tebe	-1618
giro	-1619
▁bagera	-1620
hugurwa	-1621
▁imodoka	-1622
▁pe	-1623
▁kan	-1624
▁kuvu	-1625
▁Be	-1626
haranira	-1627
hame	-1628
tabiriye	-1629
tonde	-1630
amashuri	-1631
zina	-1632
▁La	-1633
korere	-1634
▁bitaro	-1635
shyan	-1636
▁ubumenyi	-1637
hara	-1638
▁leta	-1639
teguye	-1640
shijwe	-1641
kemura	-1642
▁bibazo	-1643
risto	-1644
▁yagiye	-1645
bavu	-1646
▁iti	-1647
hagije	-1648
rurwe	-1649
ibanze	-1650
▁abakozi	-1651
garagaye	-1652
ndwi	-1653
▁yeme	-1654
baba	-1655
▁inta	-1656
hunga	-1657
kurikiran	-1658
gabanya	-1659
ramu	-1660
shusho	-1661
umutekano	-1662
▁nabo	-1663
byiri	-1664
▁sha	-1665
▁Kana	-1666
kani	-1667
teganya	-1668
▁buru	-1669
▁itsinda	-1670
▁nku	-1671
▁Twa	-1672
▁biro	-1673
injira	-1674
tiye	-1675
abagore	-1676
rusi	-1677
▁Li	-1678
AC	-1679
jyepfo	-1680
▁Werurwe	-1681
umvi	-1682
rekeza	-1683
▁Wa	-1684
nyine	-1685
▁guku	-1686
▁kiganiro	-1687
▁Uhoraho	-1688
▁nziza	-1689
▁Nyaga	-1690
▁kuzamu	-1691
hwa	-1692
▁utu	-1693
▁zabo	-1694
▁urwo	-1695
yamu	-1696
BA	-1697
shiman	-1698
yimana	-1699
▁murenge	-1700
bano	-1701
les	-1702
sera	-1703
yenda	-1704
▁yahise	-1705
rwaho	-1706
▁Ne	-1707
▁ziri	-1708
▁kiza	-1709
▁bayi	-1710
taro	-1711
Uyu	-1712
▁so	-1713
▁Do	-1714
▁mwiza	-1715
izindi	-1716
boza	-1717
cye	-1718
mije	-1719
▁vi	-1720
▁umubare	-1721
▁Tan	-1722
▁bagize	-1723
fungwa	-1724
▁iby	-1725
▁Isi	-1726
yeho	-1727
fashije	-1728
iyi	-1729
vuzi	-1730
▁Mukuru	-1731
tsina	-1732
▁akamaro	-1733
▁baku	-1734
▁tuba	-1735
▁inka	-1736
wanzuro	-1737
umuntu	-1738
▁ibihugu	-1739
▁nyama	-1740
Umuryango	-1741
bizi	-1742
hagarariye	-1743
▁mwe	-1744
▁undi	-1745
▁nshuro	-1746
▁guso	-1747
hariye	-1748
ste	-1749
▁Ge	-1750
kwira	-1751
tanzwe	-1752
▁Guverinoma	-1753
ren	-1754
▁Em	-1755
▁nkuru	-1756
▁amateka	-1757
giranye	-1758
umwaka	-1759
▁tuza	-1760
▁Fran	-1761
▁imaze	-1762
gurira	-1763
▁ingabo	-1764
kisha	-1765
WA	-1766
soro	-1767
twaro	-1768
▁agiye	-1769
rereza	-1770
▁kureba	-1771
▁shampi	-1772
ingabo	-1773
rs	-1774
▁abakinnyi	-1775
▁ikintu	-1776
genewe	-1777
▁itatu	-1778
gesera	-1779
▁bake	-1780
Ha	-1781
koro	-1782
▁tuka	-1783
▁yasabye	-1784
rasira	-1785
▁ruhande	-1786
▁iya	-1787
▁inzego	-1788
genzura	-1789
▁inyungu	-1790
▁umunsi	-1791
▁tw	-1792
ball	-1793
ER	-1794
▁indirimbo	-1795
▁ida	-1796
shyantare	-1797
▁udu	-1798
▁bwabo	-1799
▁ibiro	-1800
▁ishize	-1801
kenewe	-1802
banje	-1803
▁ibin	-1804
▁kumva	-1805
tira	-1806
▁abari	-1807
shoramari	-1808
kwiriye	-1809
▁kugirango	-1810
▁byatumye	-1811
yina	-1812
CO	-1813
buze	-1814
▁shampiyona	-1815
▁gukorera	-1816
▁ubutumwa	-1817
▁raporo	-1818
vid	-1819
▁Nze	-1820
gerageza	-1821
dio	-1822
▁Ju	-1823
▁kazi	-1824
nama	-1825
yubako	-1826
sana	-1827
▁Gashyantare	-1828
▁mugabo	-1829
▁Tanzani	-1830
rangije	-1831
▁kwica	-1832
ngirije	-1833
▁Uku	-1834
jeje	-1835
▁irimo	-1836
ngabo	-1837
bayeho	-1838
ganye	-1839
▁gisirikare	-1840
▁Ho	-1841
rengerazuba	-1842
bw	-1843
▁imiryango	-1844
curuzwa	-1845
▁vu	-1846
▁Rubavu	-1847
▁Ta	-1848
rangiza	-1849
▁ibyi	-1850
gezweho	-1851
▁Ntara	-1852
▁amahoro	-1853
fitanye	-1854
umugore	-1855
mijwe	-1856
uwo	-1857
▁Uwi	-1858
▁byabo	-1859
▁Vi	-1860
ver	-1861
▁ake	-1862
▁kuru	-1863
Tu	-1864
yemeza	-1865
byara	-1866
canyi	-1867
▁Mutarama	-1868
suku	-1869
mban	-1870
depite	-1871
uburyo	-1872
▁rye	-1873
▁hin	-1874
▁Kin	-1875
Epfo	-1876
maga	-1877
▁Frw	-1878
ziya	-1879
▁Cla	-1880
yoboye	-1881
▁ntibi	-1882
uwa	-1883
▁gukina	-1884
▁hanyuma	-1885
▁haza	-1886
▁amanota	-1887
▁Kanama	-1888
▁hasi	-1889
▁nayo	-1890
▁Uwa	-1891
▁Abi	-1892
manuel	-1893
▁bice	-1894
▁hirya	-1895
▁ubundi	-1896
rugendo	-1897
butso	-1898
▁miliyari	-1899
▁Icyakora	-1900
▁Kwi	-1901
▁Nyan	-1902
▁kipe	-1903
jyanama	-1904
▁ijambo	-1905
amazi	-1906
fatanyije	-1907
▁Mbere	-1908
yubahi	-1909
gwe	-1910
▁akora	-1911
ubuyobozi	-1912
bije	-1913
senga	-1914
che	-1915
▁ngu	-1916
herereye	-1917
kaza	-1918
AM	-1919
▁kun	-1920
▁ibigo	-1921
ph	-1922
▁muhanda	-1923
▁ana	-1924
▁inshuro	-1925
▁urugero	-1926
tana	-1927
suzuma	-1928
▁politiki	-1929
hoho	-1930
danga	-1931
IB	-1932
▁yagaragaje	-1933
ikoranabuhanga	-1934
▁filime	-1935
▁mba	-1936
ubucuruzi	-1937
tanyi	-1938
▁Sena	-1939
Ma	-1940
▁ntara	-1941
▁agomba	-1942
turuka	-1943
ritse	-1944
▁hino	-1945
shingwa	-1946
hitamo	-1947
▁Akarere	-1948
▁kuta	-1949
ngabunga	-1950
▁cyiciro	-1951
▁icyizere	-1952
zanyo	-1953
▁Emmanuel	-1954
▁mafaranga	-1955
▁nke	-1956
▁zari	-1957
▁p	-1958
▁mbi	-1959
mero	-1960
muka	-1961
▁Uwo	-1962
jana	-1963
▁Pro	-1964
▁mushinga	-1965
kerarugendo	-1966
iterambere	-1967
▁nzira	-1968
yonge	-1969
▁Nubwo	-1970
gendera	-1971
rangiye	-1972
▁umukinnyi	-1973
rangwa	-1974
▁ebyiri	-1975
SA	-1976
saza	-1977
▁wacu	-1978
▁vuba	-1979
inzego	-1980
rushaho	-1981
bon	-1982
▁Afri	-1983
▁kuwa	-1984
yamama	-1985
kunzi	-1986
raso	-1987
ir	-1988
yigi	-1989
heruka	-1990
roshye	-1991
▁burundu	-1992
▁kwishyura	-1993
▁bwiza	-1994
IM	-1995
▁to	-1996
▁Cha	-1997
burasira	-1998
yemeje	-1999
▁cyari	-2000
▁igikorwa	-2001
yanya	-2002
kotanyi	-2003
▁abe	-2004
▁bifite	-2005
mpa	-2006
gena	-2007
▁guhangana	-2008
▁inzo	-2009
amaguru	-2010
shyizwe	-2011
rasirazuba	-2012
gereza	-2013
burasirazuba	-2014
▁bashaka	-2015
ziki	-2016
▁yacu	-2017
▁yakomeje	-2018
kubahwa	-2019
▁gutuma	-2020
tani	-2021
ibya	-2022
▁hakaba	-2023
▁Muka	-2024
ment	-2025
rura	-2026
mbaye	-2027
shima	-2028
▁bibiri	-2029
perereza	-2030
▁ajya	-2031
▁bikomeye	-2032
ranyi	-2033
▁makuru	-2034
▁batuye	-2035
▁Mun	-2036
tri	-2037
rwo	-2038
▁ikigo	-2039
▁bahawe	-2040
son	-2041
▁Sta	-2042
shyingo	-2043
umwe	-2044
tore	-2045
▁kurushaho	-2046
yumva	-2047
...)	-2048
ingenzi	-2049
sanzu	-2050
wongereza	-2051
▁itanu	-2052
rabu	-2053
shyirahamwe	-2054
▁bintu	-2055
lin	-2056
rebe	-2057
hira	-2058
▁ibihe	-2059
gihe	-2060
▁Za	-2061
▁kurya	-2062
sabi	-2063
▁kubungabunga	-2064
manza	-2065
kwakira	-2066
Ba	-2067
▁Ukuboza	-2068
▁yayo	-2069
▁arimo	-2070
lice	-2071
▁umuco	-2072
tangajwe	-2073
▁ibidukikije	-2074
▁(...)	-2075
▁ubutaka	-2076
dan	-2077
rego	-2078
rwego	-2079
▁Muhanga	-2080
Abi	-2081
rokotse	-2082
▁Ikindi	-2083
▁ushize	-2084
▁gice	-2085
▁Bugesera	-2086
shake	-2087
bazi	-2088
vugo	-2089
zihi	-2090
shiki	-2091
▁yahawe	-2092
swe	-2093
▁Huye	-2094
kosa	-2095
ikipe	-2096
▁guhabwa	-2097
toki	-2098
▁izindi	-2099
▁BBC	-2100
ibigo	-2101
▁ingamba	-2102
polisi	-2103
▁nshya	-2104
▁gato	-2105
▁dore	-2106
remezo	-2107
mewe	-2108
gezi	-2109
boko	-2110
▁kane	-2111
tunganya	-2112
siyete	-2113
kwezi	-2114
▁ubumwe	-2115
▁icyemezo	-2116
sobanuye	-2117
shyigikira	-2118
ibikorwa	-2119
▁nyamara	-2120
▁gishinzwe	-2121
▁Twi	-2122
▁Umunyamabanga	-2123
▁nari	-2124
▁Nzeri	-2125
wabo	-2126
▁Mujyi	-2127
gurisha	-2128
taha	-2129
▁Ben	-2130
▁mwana	-2131
hani	-2132
▁koko	-2133
▁kwibuka	-2134
genge	-2135
mbasa	-2136
▁kubaho	-2137
▁imibereho	-2138
UR	-2139
kane	-2140
kandi	-2141
heli	-2142
▁ziba	-2143
yuranye	-2144
▁rwose	-2145
▁babona	-2146
▁kwakira	-2147
zin	-2148
▁Nyakubahwa	-2149
hinduka	-2150
tte	-2151
mokarasi	-2152
▁ngingo	-2153
▁asaba	-2154
▁Uni	-2155
▁bagi	-2156
herutse	-2157
▁telefo	-2158
▁:	-2159
▁Nk	-2160
▁inzira	-2161
gombaga	-2162
▁gutwara	-2163
ton	-2164
fitiye	-2165
kiriye	-2166
▁Bwongereza	-2167
▁mahanga	-2168
▁Kan	-2169
mya	-2170
▁gucu	-2171
curuza	-2172
gwi	-2173
▁inko	-2174
▁ushobora	-2175
▁igikombe	-2176
▁umushinga	-2177
▁Gen	-2178
▁amasomo	-2179
ven	-2180
ly	-2181
dufasha	-2182
▁Ri	-2183
yobya	-2184
▁itegeko	-2185
cwa	-2186
shyizweho	-2187
baga	-2188
hingwa	-2189
▁d	-2190
bumbye	-2191
%.	-2192
▁Mar	-2193
induka	-2194
▁ura	-2195
magana	-2196
▁Fi	-2197
huriro	-2198
▁–	-2199
▁wanjye	-2200
us	-2201
▁intego	-2202
▁Urukiko	-2203
camanza	-2204
girira	-2205
Na	-2206
kari	-2207
goroba	-2208
▁umurimo	-2209
sizi	-2210
▁Kuva	-2211
▁baje	-2212
hereye	-2213
▁yamaze	-2214
▁batatu	-2215
sese	-2216
▁Banki	-2217
▁ishobora	-2218
▁bagira	-2219
genza	-2220
▁ibiganiro	-2221
▁gitondo	-2222
▁ibitego	-2223
▁CO	-2224
merewe	-2225
▁bakoze	-2226
ruwa	-2227
▁ibitekerezo	-2228
▁umwi	-2229
yamuryango	-2230
▁metero	-2231
▁kuya	-2232
bonera	-2233
▁An	-2234
zimana	-2235
bili	-2236
▁turere	-2237
▁umutwe	-2238
ubukungu	-2239
▁uretse	-2240
’,	-2241
Imi	-2242
▁Nyira	-2243
▁ukuri	-2244
vuza	-2245
pimo	-2246
▁gukorwa	-2247
ken	-2248
sta	-2249
▁guhera	-2250
gushyingo	-2251
▁Um	-2252
mbasade	-2253
▁wungirije	-2254
▁Is	-2255
zeye	-2256
▁Abo	-2257
▁bakiri	-2258
shimye	-2259
▁bindi	-2260
▁igaragaza	-2261
giwe	-2262
▁muganga	-2263
ble	-2264
tangazamakuru	-2265
shingwabikorwa	-2266
▁FPR	-2267
mwami	-2268
▁Nyagatare	-2269
es	-2270
GI	-2271
kingo	-2272
▁Umuryango	-2273
rwana	-2274
kwaho	-2275
tozo	-2276
aka	-2277
cyi	-2278
▁nibura	-2279
▁kugaragaza	-2280
▁masezerano	-2281
tali	-2282
▁nkoranya	-2283
fatanyabikorwa	-2284
kondo	-2285
▁icu	-2286
▁myinshi	-2287
andika	-2288
▁Bufaransa	-2289
gati	-2290
kangura	-2291
sheje	-2292
vuguru	-2293
▁byara	-2294
inisitiri	-2295
kinira	-2296
agaciro	-2297
▁ntacyo	-2298
▁Igihugu	-2299
▁bigaragara	-2300
▁kibuga	-2301
terahamwe	-2302
▁bitabi	-2303
huye	-2304
▁Nuko	-2305
▁Ubumwe	-2306
▁amakipe	-2307
.’	-2308
▁byombi	-2309
tere	-2310
kuye	-2311
tunga	-2312
▁Nti	-2313
higo	-2314
▁Nyaru	-2315
▁ayi	-2316
▁iso	-2317
▁buba	-2318
shinwa	-2319
▁kugenda	-2320
▁kuzamura	-2321
▁Au	-2322
dini	-2323
tsindi	-2324
rimana	-2325
mon	-2326
▁runa	-2327
▁bivugwa	-2328
iri	-2329
ikigo	-2330
▁ruswa	-2331
▁Yavuze	-2332
ssi	-2333
▁gusaba	-2334
ruhu	-2335
▁yaho	-2336
▁bufatanye	-2337
kesha	-2338
▁Nanone	-2339
bara	-2340
am	-2341
nzwe	-2342
yuka	-2343
▁butumwa	-2344
▁urukiko	-2345
huje	-2346
▁miryango	-2347
▁Kayi	-2348
rwaye	-2349
▁Ukwakira	-2350
inota	-2351
moko	-2352
▁twari	-2353
FA	-2354
▁and	-2355
▁Nyanza	-2356
▁Ch	-2357
▁nza	-2358
yangombwa	-2359
▁ukuntu	-2360
▁uda	-2361
▁gukura	-2362
▁igice	-2363
▁ntiya	-2364
▁ingo	-2365
seri	-2366
▁amagambo	-2367
▁batangiye	-2368
abayobozi	-2369
▁gukorana	-2370
sohoka	-2371
▁kinini	-2372
▁Marie	-2373
▁nkoranyambaga	-2374
yobowe	-2375
garutse	-2376
▁Igihe	-2377
shanga	-2378
rekeye	-2379
terere	-2380
mama	-2381
▁umukobwa	-2382
▁umwuga	-2383
▁noneho	-2384
▁umupira	-2385
▁Gusa	-2386
▁Covid	-2387
gengo	-2388
▁abanza	-2389
tungu	-2390
neri	-2391
▁bigatuma	-2392
▁Man	-2393
▁kiba	-2394
ukuri	-2395
▁make	-2396
inga	-2397
inta	-2398
shimwe	-2399
▁kenshi	-2400
bert	-2401
▁imiti	-2402
▁ugere	-2403
▁batandukanye	-2404
ZA	-2405
▁isa	-2406
anza	-2407
regwa	-2408
shatu	-2409
gamizi	-2410
▁Kongo	-2411
hiriza	-2412
shishikariza	-2413
▁Bamwe	-2414
▁the	-2415
▁gifite	-2416
▁zimwe	-2417
simbu	-2418
gukanye	-2419
▁muto	-2420
▁intwaro	-2421
shyizeho	-2422
wuga	-2423
rebana	-2424
buza	-2425
▁bageze	-2426
▁kwigisha	-2427
tumi	-2428
▁ziza	-2429
Nta	-2430
▁igitego	-2431
▁byan	-2432
▁ubushakashatsi	-2433
amavu	-2434
▁mubi	-2435
DA	-2436
▁ubucuruzi	-2437
kangurambaga	-2438
wuba	-2439
▁nshingano	-2440
▁iperereza	-2441
▁abiri	-2442
ibin	-2443
jijwe	-2444
yobyabwenge	-2445
▁kuyobora	-2446
▁Lt	-2447
▁Uko	-2448
lla	-2449
shatse	-2450
kinnye	-2451
▁kera	-2452
▁yita	-2453
’.	-2454
rima	-2455
▁ahi	-2456
▁di	-2457
▁ubukungu	-2458
▁myi	-2459
hampi	-2460
siraheli	-2461
▁Ugushyingo	-2462
▁runaka	-2463
▁urwego	-2464
tabazi	-2465
fana	-2466
jen	-2467
▁RE	-2468
▁Kivu	-2469
▁gutegura	-2470
▁Miss	-2471
▁ubwoba	-2472
ted	-2473
▁urubanza	-2474
jwa	-2475
▁mibi	-2476
▁kura	-2477
tio	-2478
▁rubuga	-2479
▁ashaka	-2480
▁mugenzi	-2481
lari	-2482
bonetse	-2483
ibibazo	-2484
komere	-2485
▁ibijyanye	-2486
▁yongeye	-2487
shyiraho	-2488
suye	-2489
▁ndirimbo	-2490
▁gutangira	-2491
shimangira	-2492
▁bakoresha	-2493
ld	-2494
▁zu	-2495
▁ndwara	-2496
▁yatanze	-2497
▁Hi	-2498
▁gukemura	-2499
ramo	-2500
▁tugomba	-2501
▁Aka	-2502
▁ukomoka	-2503
hindagu	-2504
▁bimu	-2505
▁’	-2506
▁kugabanya	-2507
guzi	-2508
▁rumwe	-2509
teganyo	-2510
gare	-2511
tegereje	-2512
▁Ubuyobozi	-2513
▁Lu	-2514
▁kira	-2515
yigisho	-2516
haza	-2517
ikin	-2518
▁butaka	-2519
▁umwanzuro	-2520
kiwe	-2521
▁Abantu	-2522
▁He	-2523
▁mpera	-2524
fungo	-2525
▁Ti	-2526
▁yisumbuye	-2527
mes	-2528
▁kugu	-2529
▁bate	-2530
rwamo	-2531
seke	-2532
▁gutsinda	-2533
▁Nige	-2534
▁gusha	-2535
▁Pi	-2536
▁Police	-2537
▁Zi	-2538
huti	-2539
yubahiro	-2540
Afurika	-2541
biligi	-2542
▁aku	-2543
▁guhi	-2544
tegeka	-2545
▁abafite	-2546
UK	-2547
shinjwa	-2548
▁Tanzania	-2549
▁akomeza	-2550
▁hagamijwe	-2551
▁kare	-2552
▁mateka	-2553
abakobwa	-2554
Ati	-2555
▁ukuvuga	-2556
”,	-2557
umwana	-2558
▁guhu	-2559
▁ukaba	-2560
Frw	-2561
win	-2562
rari	-2563
▁rubanza	-2564
zungu	-2565
▁Rusizi	-2566
nganira	-2567
ubuhinzi	-2568
gue	-2569
▁kuda	-2570
teguwe	-2571
▁bwoko	-2572
den	-2573
▁ikindi	-2574
▁barenga	-2575
ubutaka	-2576
zongera	-2577
▁ikomeye	-2578
menyekana	-2579
▁imu	-2580
▁Komini	-2581
ric	-2582
▁aramu	-2583
dolari	-2584
▁bahabwa	-2585
▁yatsinze	-2586
▁imvura	-2587
▁Akomeza	-2588
urubyiruko	-2589
▁co	-2590
gaga	-2591
ono	-2592
▁ishami	-2593
▁bakwiye	-2594
gishwa	-2595
kra	-2596
▁kurinda	-2597
Muri	-2598
▁abagabo	-2599
▁umaze	-2600
kimbi	-2601
zamuka	-2602
mura	-2603
Gu	-2604
▁gatanu	-2605
▁itandukanye	-2606
▁bazaba	-2607
▁mugore	-2608
ciwe	-2609
genze	-2610
▁bakomeje	-2611
LR	-2612
▁Umwe	-2613
jenoside	-2614
▁Ese	-2615
▁intege	-2616
▁magambo	-2617
hagaze	-2618
▁Mura	-2619
tangiza	-2620
▁gukurikirana	-2621
ngere	-2622
▁umwami	-2623
gaho	-2624
nota	-2625
▁amabwiriza	-2626
▁guhindura	-2627
ket	-2628
dage	-2629
▁yana	-2630
yoborere	-2631
▁giti	-2632
by	-2633
gombye	-2634
one	-2635
kimbirane	-2636
▁Demokarasi	-2637
koreshejwe	-2638
▁modoka	-2639
▁FD	-2640
nini	-2641
Ubwo	-2642
korewe	-2643
shyikiri	-2644
gra	-2645
rimbo	-2646
▁Burayi	-2647
my	-2648
▁kugura	-2649
IS	-2650
▁ine	-2651
kubita	-2652
▁banki	-2653
ciye	-2654
▁Rwi	-2655
cumbi	-2656
komeze	-2657
abakozi	-2658
▁imbuto	-2659
kiro	-2660
kini	-2661
▁Bya	-2662
▁itu	-2663
yuga	-2664
uburezi	-2665
YE	-2666
▁abona	-2667
▁bandi	-2668
?”	-2669
▁mbuga	-2670
▁urugendo	-2671
▁ibimenyetso	-2672
yamba	-2673
Amerika	-2674
twarire	-2675
zanye	-2676
▁umunani	-2677
▁kuha	-2678
ster	-2679
▁byu	-2680
▁Ikipe	-2681
▁kintu	-2682
indege	-2683
kraine	-2684
▁meza	-2685
kurikije	-2686
▁cyabo	-2687
▁Ikigo	-2688
▁mfite	-2689
for	-2690
ron	-2691
▁kwinjira	-2692
▁bitabiriye	-2693
▁uzwi	-2694
▁Ar	-2695
iminsi	-2696
▁itera	-2697
%,	-2698
▁Lo	-2699
sse	-2700
▁akarere	-2701
▁inguzanyo	-2702
▁atatu	-2703
▁ubutegetsi	-2704
tter	-2705
▁Iri	-2706
Igi	-2707
ganya	-2708
cika	-2709
▁amezi	-2710
fashisha	-2711
▁urukundo	-2712
Ka	-2713
▁azaba	-2714
unze	-2715
▁ibiti	-2716
gufi	-2717
icya	-2718
▁nyina	-2719
▁bombi	-2720
shira	-2721
▁ukwi	-2722
▁irushanwa	-2723
wandi	-2724
▁bwari	-2725
▁gikomeye	-2726
▁MIN	-2727
agateganyo	-2728
▁gushyiraho	-2729
▁yuba	-2730
Iburasirazuba	-2731
rohe	-2732
▁imishinga	-2733
▁tuga	-2734
pho	-2735
zamini	-2736
tangiriro	-2737
koraga	-2738
imikino	-2739
▁jenoside	-2740
korani	-2741
▁umuriro	-2742
▁Amategeko	-2743
refe	-2744
▁kari	-2745
ngenge	-2746
umugabo	-2747
▁RDC	-2748
muri	-2749
yongereye	-2750
mvikana	-2751
▁ingufu	-2752
▁Char	-2753
our	-2754
▁Clau	-2755
▁tubi	-2756
▁Inama	-2757
cent	-2758
rimba	-2759
▁zita	-2760
gejeje	-2761
▁Ukraine	-2762
▁izaba	-2763
siri	-2764
ganje	-2765
shimo	-2766
▁Africa	-2767
pamyabu	-2768
▁umwuka	-2769
▁Nku	-2770
▁ahandi	-2771
▁siporo	-2772
imp	-2773
▁imbabazi	-2774
yumvire	-2775
Isi	-2776
keye	-2777
ol	-2778
▁rukiko	-2779
ababyeyi	-2780
rambo	-2781
▁inkuru	-2782
▁ubusa	-2783
tangarije	-2784
dy	-2785
▁babonye	-2786
herezwa	-2787
rundi	-2788
kiza	-2789
▁kwiba	-2790
izi	-2791
damu	-2792
tsinzwe	-2793
geraho	-2794
Re	-2795
▁Ambasade	-2796
▁impanuka	-2797
▁FDLR	-2798
▁matora	-2799
▁mirongo	-2800
puro	-2801
amashanyarazi	-2802
▁Yakomeje	-2803
▁imbo	-2804
▁Ingingo	-2805
▁rufite	-2806
zabi	-2807
▁yabonye	-2808
menyekanye	-2809
amahanga	-2810
sesengu	-2811
▁Jose	-2812
burani	-2813
shini	-2814
US	-2815
hangayi	-2816
▁zifite	-2817
▁waba	-2818
▁Kuba	-2819
kandida	-2820
▁muhango	-2821
▁mazi	-2822
▁ahanini	-2823
▁igira	-2824
▁bwose	-2825
vuka	-2826
reze	-2827
▁kigero	-2828
▁njye	-2829
▁Abaturage	-2830
▁nabyo	-2831
▁two	-2832
▁zin	-2833
daga	-2834
▁inyandiko	-2835
Intebe	-2836
▁Con	-2837
▁bakuru	-2838
▁Yi	-2839
▁Aha	-2840
▁ntu	-2841
▁wawe	-2842
▁impano	-2843
▁Gatanu	-2844
cuku	-2845
Hari	-2846
▁abakobwa	-2847
▁atandukanye	-2848
ngiye	-2849
koreye	-2850
yura	-2851
Ikigo	-2852
▁bitatu	-2853
▁mirimo	-2854
tional	-2855
▁batari	-2856
tware	-2857
gega	-2858
▁ryari	-2859
▁nyarwanda	-2860
▁agaragaza	-2861
▁rubyiruko	-2862
▁komi	-2863
juje	-2864
▁muda	-2865
papuro	-2866
▁amaso	-2867
shinze	-2868
▁Kugeza	-2869
raba	-2870
sabo	-2871
▁byaha	-2872
nganire	-2873
▁uzi	-2874
rijwe	-2875
andura	-2876
▁bifuza	-2877
yamahanga	-2878
▁inshuti	-2879
hanu	-2880
▁munota	-2881
kristo	-2882
dani	-2883
muntu	-2884
gukana	-2885
▁niyo	-2886
kwirakwi	-2887
mbyi	-2888
▁muyobozi	-2889
miye	-2890
▁sosiyete	-2891
▁umutungo	-2892
▁amashanyarazi	-2893
HE	-2894
IR	-2895
▁bayobozi	-2896
ubutegetsi	-2897
kingi	-2898
▁biganiro	-2899
garagu	-2900
▁Ntabwo	-2901
▁remezo	-2902
▁kuga	-2903
▁marushanwa	-2904
▁batanga	-2905
rali	-2906
▁bibi	-2907
duko	-2908
▁natwe	-2909
▁wan	-2910
sabwe	-2911
umuyobozi	-2912
Pe	-2913
▁yinji	-2914
▁Uretse	-2915
▁bahise	-2916
up	-2917
▁bayo	-2918
▁byabaye	-2919
▁Kubera	-2920
rwaga	-2921
butsa	-2922
AF	-2923
giriye	-2924
▁Niba	-2925
▁ugasanga	-2926
hutu	-2927
▁bagore	-2928
vamo	-2929
▁gukumira	-2930
▁gereza	-2931
Umurenge	-2932
▁buda	-2933
▁kire	-2934
▁agera	-2935
iya	-2936
Twa	-2937
▁Muse	-2938
▁ahita	-2939
ishuri	-2940
fashishwa	-2941
inda	-2942
▁buta	-2943
▁«	-2944
amavuko	-2945
▁Urugero	-2946
ubundi	-2947
▁akenshi	-2948
▁itorero	-2949
▁gakondo	-2950
▁kugaragara	-2951
hohoterwa	-2952
sco	-2953
▁wabaye	-2954
urukiko	-2955
▁yagiranye	-2956
▁isuku	-2957
▁ubuhinzi	-2958
▁ruri	-2959
zindu	-2960
▁l	-2961
▁bimeze	-2962
▁inyama	-2963
shyirwaho	-2964
IDA	-2965
banya	-2966
▁Radio	-2967
▁gitaramo	-2968
GE	-2969
▁yageze	-2970
ganiriye	-2971
banuka	-2972
▁cyaha	-2973
hn	-2974
biriwe	-2975
▁bisanzwe	-2976
shimishije	-2977
▁ubi	-2978
yweho	-2979
▁Patri	-2980
imiryango	-2981
cuti	-2982
▁nkuko	-2983
▁Ke	-2984
Amajyaruguru	-2985
▁Visi	-2986
▁rushanwa	-2987
▁kwitabira	-2988
▁munini	-2989
dia	-2990
imyi	-2991
▁intambara	-2992
▁bura	-2993
gaciro	-2994
▁RIB	-2995
▁ahari	-2996
tsiko	-2997
mbuka	-2998
garika	-2999
▁abasirikare	-3000
umukino	-3001
yoboro	-3002
▁None	-3003
fumbi	-3004
sheke	-3005
rabuzima	-3006
▁umutima	-3007
▁abahinzi	-3008
▁ukomeye	-3009
VID	-3010
▁isan	-3011
▁ubufatanye	-3012
▁ruza	-3013
▁batara	-3014
▁umuti	-3015
yanzuro	-3016
▁Kabiri	-3017
sobwa	-3018
monyi	-3019
▁Rwamagana	-3020
gabe	-3021
▁eshatu	-3022
Amajyepfo	-3023
▁sita	-3024
uba	-3025
ziyo	-3026
yanga	-3027
▁buhinzi	-3028
▁umubyeyi	-3029
▁Umwami	-3030
▁kubura	-3031
▁iwabo	-3032
IC	-3033
vugaga	-3034
turanyi	-3035
ahandi	-3036
▁yifuza	-3037
myi	-3038
▁yumva	-3039
▁abagize	-3040
ibihumbi	-3041
Iyo	-3042
▁wayo	-3043
▁amazina	-3044
vana	-3045
gurwa	-3046
▁Ngoma	-3047
Ingabo	-3048
▁Inkotanyi	-3049
size	-3050
AB	-3051
sobanuro	-3052
utu	-3053
Abibumbye	-3054
banyi	-3055
▁Musa	-3056
▁asanzwe	-3057
garagaro	-3058
erre	-3059
wuka	-3060
▁andi	-3061
viziyo	-3062
▁guta	-3063
rebye	-3064
▁re	-3065
▁guse	-3066
bitekerezo	-3067
teli	-3068
igice	-3069
▁ugereranyije	-3070
icyi	-3071
▁ukora	-3072
▁mategeko	-3073
▁akana	-3074
tel	-3075
ngeraho	-3076
abagabo	-3077
fatiwe	-3078
ar	-3079
mpan	-3080
▁bikwiye	-3081
▁kwivuza	-3082
▁amatora	-3083
▁guhura	-3084
▁yavu	-3085
▁bitanga	-3086
▁byiciro	-3087
▁basanzwe	-3088
▁igiye	-3089
▁yabereye	-3090
▁umunya	-3091
kurikiza	-3092
jura	-3093
▁ate	-3094
jugu	-3095
rikire	-3096
▁urugo	-3097
▁gusura	-3098
▁Inter	-3099
▁Es	-3100
▁guca	-3101
zeza	-3102
tinya	-3103
yabuzima	-3104
▁ubutabera	-3105
▁amaraso	-3106
▁bane	-3107
herero	-3108
▁guhuza	-3109
Abatutsi	-3110
▁ejo	-3111
gamo	-3112
mukira	-3113
shyiki	-3114
▁ubwoko	-3115
ngira	-3116
▁zombi	-3117
byaza	-3118
rekezo	-3119
ikirere	-3120
▁Misiri	-3121
kangurira	-3122
shyigikiye	-3123
▁John	-3124
▁SIDA	-3125
Umuyobozi	-3126
▁nuko	-3127
▁bigaragaza	-3128
umun	-3129
sasu	-3130
sti	-3131
▁Nshingwabikorwa	-3132
▁bwinshi	-3133
▁mudasobwa	-3134
sohotse	-3135
▁kirekire	-3136
▁abavandimwe	-3137
▁ururimi	-3138
▁Umurenge	-3139
ON	-3140
Yagize	-3141
bwami	-3142
▁igihembo	-3143
rusiya	-3144
saka	-3145
yabizi	-3146
gora	-3147
▁umukozi	-3148
amahoro	-3149
▁yaku	-3150
▁umubiri	-3151
tiwe	-3152
umukobwa	-3153
▁ruganda	-3154
▁zira	-3155
▁Gatatu	-3156
yabiziga	-3157
Bi	-3158
sagara	-3159
▁ingingo	-3160
▁ijoro	-3161
▁ubufasha	-3162
merera	-3163
com	-3164
menyesha	-3165
▁umuhanda	-3166
siya	-3167
funzwe	-3168
jyambere	-3169
▁Nkuru	-3170
verineri	-3171
huriye	-3172
▁bakorera	-3173
hagari	-3174
kenera	-3175
▁nyira	-3176
soza	-3177
▁yuko	-3178
▁atanga	-3179
▁imikorere	-3180
▁bagabo	-3181
lub	-3182
▁amasaha	-3183
▁kuno	-3184
▁shuri	-3185
Perezida	-3186
▁Fe	-3187
cho	-3188
kono	-3189
ruta	-3190
chi	-3191
▁badu	-3192
▁bishwe	-3193
zihiza	-3194
▁kwiyongera	-3195
abanyeshuri	-3196
zara	-3197
▁impamyabu	-3198
lan	-3199
▁ihe	-3200
▁kwan	-3201
amezi	-3202
henge	-3203
▁mukobwa	-3204
▁bakinnyi	-3205
liyoni	-3206
▁bushakashatsi	-3207
▁Sha	-3208
",	-3209
jyanwa	-3210
▁ahitwa	-3211
▁umubano	-3212
▁nabwo	-3213
ngana	-3214
▁bavuze	-3215
Ru	-3216
▁wara	-3217
▁Kamonyi	-3218
▁gusoma	-3219
▁Mpu	-3220
▁mugaragaro	-3221
▁riza	-3222
fumbire	-3223
hindagurikire	-3224
the	-3225
▁buza	-3226
garagam	-3227
▁COVID	-3228
two	-3229
lometero	-3230
▁hakiri	-3231
nyeshuri	-3232
▁uburezi	-3233
hwe	-3234
▁gusi	-3235
mirimo	-3236
yubaka	-3237
▁bigize	-3238
taho	-3239
cukiro	-3240
▁Tru	-3241
▁banyeshuri	-3242
tabara	-3243
ibiri	-3244
koperative	-3245
thi	-3246
▁isanzwe	-3247
▁Lea	-3248
▁usanzwe	-3249
▁bizaba	-3250
▁gatandatu	-3251
▁Nyarugenge	-3252
tsindwa	-3253
inzu	-3254
sengi	-3255
hama	-3256
▁koro	-3257
▁atu	-3258
rongi	-3259
UN	-3260
▁Charles	-3261
▁igifungo	-3262
kanwa	-3263
▁zika	-3264
▁mubiri	-3265
▁Gicumbi	-3266
▁umuturage	-3267
funga	-3268
▁•	-3269
▁ibicuruzwa	-3270
▁yata	-3271
ise	-3272
rwanyi	-3273
itegeko	-3274
▁ubw	-3275
▁riri	-3276
▁ntego	-3277
Urukiko	-3278
▁Claude	-3279
▁makipe	-3280
▁yanditse	-3281
▁uti	-3282
ngire	-3283
MA	-3284
▁ruta	-3285
▁Nyabi	-3286
▁numva	-3287
▁Burera	-3288
fuzo	-3289
bwaho	-3290
▁bihumbi	-3291
eu	-3292
▁zida	-3293
▁rutonde	-3294
RC	-3295
▁ikora	-3296
▁mugabane	-3297
gaba	-3298
▁kurengera	-3299
▁amahugurwa	-3300
Ikin	-3301
bukuru	-3302
▁ibisubizo	-3303
▁buka	-3304
riweho	-3305
▁imari	-3306
▁zikomeye	-3307
▁impungenge	-3308
ceri	-3309
yani	-3310
▁musore	-3311
▁mutima	-3312
▁Ab	-3313
impu	-3314
▁abakiri	-3315
▁ibyangombwa	-3316
gal	-3317
gereye	-3318
▁yanjye	-3319
tangazo	-3320
▁Gatandatu	-3321
▁butandukanye	-3322
▁ijana	-3323
yujije	-3324
witwa	-3325
▁ibiciro	-3326
fungura	-3327
▁Ngoro	-3328
▁ishinzwe	-3329
rime	-3330
sket	-3331
intambara	-3332
▁bazajya	-3333
kurikiranyweho	-3334
▁ubwe	-3335
▁baya	-3336
fashwa	-3337
▁nyandiko	-3338
▁uruganda	-3339
▁baru	-3340
shakaga	-3341
ura	-3342
▁Ci	-3343
▁Mala	-3344
▁rwari	-3345
anditse	-3346
umi	-3347
▁yafashe	-3348
lly	-3349
▁bisaba	-3350
▁kirere	-3351
▁Inteko	-3352
ranyo	-3353
▁ikoreshwa	-3354
goye	-3355
▁ibyiza	-3356
▁impinduka	-3357
▁Aho	-3358
vuduko	-3359
yemezamirimo	-3360
▁Kicukiro	-3361
stin	-3362
▁bene	-3363
▁akiri	-3364
▁cyu	-3365
▁tuzi	-3366
▁icumi	-3367
▁Q	-3368
liziya	-3369
▁'	-3370
Rwanda	-3371
▁kwandika	-3372
▁Kane	-3373
shingiro	-3374
▁naba	-3375
nes	-3376
Umun	-3377
▁imyenda	-3378
▁Tshi	-3379
▁polisi	-3380
▁Pawu	-3381
▁kikaba	-3382
ranenge	-3383
bwoba	-3384
tor	-3385
▁bigira	-3386
▁bakabi	-3387
▁imibare	-3388
▁ishyaka	-3389
▁bakeneye	-3390
GA	-3391
huse	-3392
rael	-3393
▁ababa	-3394
▁rugendo	-3395
umuco	-3396
▁Pawulo	-3397
▁Zunze	-3398
▁yayi	-3399
▁Abanya	-3400
genzuzi	-3401
▁atara	-3402
▁Nigeria	-3403
undi	-3404
jyaga	-3405
▁kugenzura	-3406
imwe	-3407
▁Ib	-3408
dagadu	-3409
abari	-3410
as	-3411
shanyo	-3412
▁asanga	-3413
▁buvuga	-3414
bonaga	-3415
▁imyitozo	-3416
▁ariyo	-3417
▁isano	-3418
▁Pierre	-3419
feri	-3420
▁batangira	-3421
▁Ltd	-3422
loni	-3423
ndana	-3424
▁abarimu	-3425
▁gusubira	-3426
geni	-3427
kongo	-3428
ganjemo	-3429
gerageje	-3430
▁Nyamasheke	-3431
ngiro	-3432
tegereza	-3433
▁Ndi	-3434
▁yawe	-3435
gitari	-3436
funguro	-3437
▁Vo	-3438
rengeje	-3439
ranwa	-3440
▁busanzwe	-3441
rikana	-3442
byaye	-3443
▁yahi	-3444
▁bwite	-3445
▁abenshi	-3446
▁Habya	-3447
▁Ruhango	-3448
yanda	-3449
▁nimu	-3450
▁birori	-3451
shakanye	-3452
ab	-3453
▁moto	-3454
inzo	-3455
TE	-3456
mashini	-3457
▁abagenzi	-3458
weho	-3459
akazi	-3460
ziranenge	-3461
▁Goma	-3462
ng	-3463
▁Inga	-3464
▁al	-3465
▁amata	-3466
▁guhagarika	-3467
▁bikoresho	-3468
▁mw	-3469
▁baturutse	-3470
tre	-3471
▁abu	-3472
sibye	-3473
▁guto	-3474
▁byeme	-3475
▁wose	-3476
▁Ishinga	-3477
▁ntangiriro	-3478
ngerera	-3479
▁iy	-3480
HO	-3481
YA	-3482
gina	-3483
▁guverinoma	-3484
▁kubo	-3485
▁wowe	-3486
▁ibice	-3487
▁New	-3488
caro	-3489
hindutse	-3490
▁perezida	-3491
▁koperative	-3492
▁Nde	-3493
vier	-3494
▁maso	-3495
kenke	-3496
fatika	-3497
▁muke	-3498
▁ukina	-3499
wibutso	-3500
yanja	-3501
zinduko	-3502
▁uhagarariye	-3503
▁Ndayi	-3504
▁kunywa	-3505
citse	-3506
umupira	-3507
▁basaba	-3508
▁itangazamakuru	-3509
vuzwe	-3510
kuramo	-3511
▁telefone	-3512
▁rurimi	-3513
▁en	-3514
▁uvuga	-3515
▁Sy	-3516
funze	-3517
▁RD	-3518
ubumenyi	-3519
▁nyubako	-3520
▁Shampi	-3521
▁hata	-3522
ingu	-3523
tsinzi	-3524
iza	-3525
yahu	-3526
rewe	-3527
imibereho	-3528
kurikiranwa	-3529
tal	-3530
▁nyi	-3531
▁Mudugudu	-3532
▁f	-3533
tsindiye	-3534
shahara	-3535
▁cyacu	-3536
hesha	-3537
▁gutu	-3538
gh	-3539
Icyo	-3540
sekedi	-3541
▁kuwu	-3542
▁bivuze	-3543
inama	-3544
imvura	-3545
shyuhe	-3546
▁Kagari	-3547
Iyi	-3548
▁babu	-3549
widi	-3550
▁nanone	-3551
▁Umuvugizi	-3552
ssa	-3553
runga	-3554
garura	-3555
▁ngaruka	-3556
zanya	-3557
▁kita	-3558
sani	-3559
zengu	-3560
hanganye	-3561
▁Joseph	-3562
▁intambwe	-3563
▁ab	-3564
▁bavuye	-3565
▁igisubizo	-3566
▁Fo	-3567
shoboraga	-3568
▁Gasabo	-3569
▁Habyarimana	-3570
zura	-3571
anduye	-3572
▁Dawidi	-3573
▁inzoga	-3574
▁Guverineri	-3575
KO	-3576
lley	-3577
▁Israel	-3578
▁hara	-3579
▁mezi	-3580
rus	-3581
▁kuki	-3582
▁nyungu	-3583
▁iku	-3584
▁Iharanira	-3585
▁bagenda	-3586
▁UN	-3587
tangije	-3588
▁cumi	-3589
▁mwene	-3590
▁)	-3591
▁bako	-3592
▁Miliyoni	-3593
▁amashusho	-3594
boneza	-3595
▁zikaba	-3596
shingizi	-3597
▁umwa	-3598
▁Urwego	-3599
rondo	-3600
▁bakana	-3601
▁butegetsi	-3602
▁uruhu	-3603
▁gutekereza	-3604
ubuvuzi	-3605
sangan	-3606
koranire	-3607
▁ise	-3608
▁kunoza	-3609
▁bahi	-3610
WE	-3611
koko	-3612
net	-3613
▁amabuye	-3614
▁nderabuzima	-3615
teze	-3616
▁bike	-3617
▁gitabo	-3618
burengerazuba	-3619
rwano	-3620
▁muzi	-3621
garama	-3622
mure	-3623
shimisha	-3624
soje	-3625
▁ibihano	-3626
▁Tshisekedi	-3627
▁yashimiye	-3628
▁yemeza	-3629
nti	-3630
amateka	-3631
sinzi	-3632
indwara	-3633
▁amashyamba	-3634
gerwaho	-3635
▁She	-3636
▁am	-3637
sora	-3638
▁Bushinwa	-3639
ibihe	-3640
▁igihano	-3641
muna	-3642
yonza	-3643
▁bumva	-3644
▁zishobora	-3645
▁agi	-3646
▁nanjye	-3647
▁yashyize	-3648
▁Kaba	-3649
▁bagaragaje	-3650
▁Han	-3651
▁ziga	-3652
▁United	-3653
SS	-3654
▁h	-3655
▁dushobora	-3656
tho	-3657
Abanya	-3658
manaho	-3659
sobanukirwa	-3660
sengero	-3661
▁gushyigikira	-3662
▁yatumye	-3663
Ubuzima	-3664
▁imibiri	-3665
▁wenyine	-3666
umvise	-3667
▁Mpuzamahanga	-3668
▁Ambasaderi	-3669
mani	-3670
▁umutoza	-3671
cha	-3672
▁guhinga	-3673
ERWA	-3674
ikibazo	-3675
▁yahaye	-3676
▁bakajya	-3677
▁Aya	-3678
fashishijwe	-3679
ruhuko	-3680
▁Karongi	-3681
▁Bubiligi	-3682
ingo	-3683
amanota	-3684
dri	-3685
▁You	-3686
▁rira	-3687
ibyi	-3688
▁akaza	-3689
▁Sudani	-3690
▁mushya	-3691
▁bakunda	-3692
▁baramu	-3693
ubworozi	-3694
duha	-3695
▁amajwi	-3696
hombo	-3697
ture	-3698
▁Kiyo	-3699
shingira	-3700
▁Perefe	-3701
▁la	-3702
▁tuta	-3703
ruru	-3704
▁abatutsi	-3705
tange	-3706
▁nu	-3707
hisha	-3708
kangu	-3709
rehe	-3710
▁itangazo	-3711
shasa	-3712
ringanire	-3713
rukira	-3714
▁AS	-3715
▁Trump	-3716
▁ntibya	-3717
▁wamu	-3718
▁ingendo	-3719
▁kindi	-3720
rengane	-3721
▁ugomba	-3722
teganywa	-3723
▁Buri	-3724
▁yadu	-3725
ngwa	-3726
▁San	-3727
▁ite	-3728
▁X	-3729
gezeho	-3730
gome	-3731
kanda	-3732
Intara	-3733
▁rishinzwe	-3734
bese	-3735
ngero	-3736
▁Hono	-3737
sketball	-3738
ukwezi	-3739
lix	-3740
▁yise	-3741
ibikoresho	-3742
▁hu	-3743
▁yagu	-3744
▁bitari	-3745
pp	-3746
ibiro	-3747
▁Yezu	-3748
▁gufungwa	-3749
vubi	-3750
boneye	-3751
▁muhanzi	-3752
yamamaza	-3753
genzacyaha	-3754
▁”	-3755
▁ubona	-3756
ndwa	-3757
▁yako	-3758
▁virusi	-3759
▁ababi	-3760
▁imihanda	-3761
ub	-3762
hemuka	-3763
▁murimo	-3764
▁rugamba	-3765
▁bitu	-3766
abafite	-3767
▁isu	-3768
▁ibyago	-3769
kere	-3770
zwaga	-3771
▁Eric	-3772
gitura	-3773
▁byamu	-3774
▁amakosa	-3775
▁gutunganya	-3776
ré	-3777
rize	-3778
yisi	-3779
hinde	-3780
▁abanya	-3781
shyurwa	-3782
▁kubwiriza	-3783
dana	-3784
tinze	-3785
▁ibiyobyabwenge	-3786
▁mudugudu	-3787
yeli	-3788
▁guhanga	-3789
RW	-3790
fungi	-3791
merere	-3792
▁hashize	-3793
▁nki	-3794
▁indege	-3795
cal	-3796
byaha	-3797
▁kumwi	-3798
▁Kayonza	-3799
▁kuganira	-3800
PA	-3801
Nyuma	-3802
▁biteganyijwe	-3803
zuza	-3804
▁Shampiyona	-3805
gengabitekerezo	-3806
▁atandatu	-3807
▁umusanzu	-3808
nera	-3809
▁Bosco	-3810
▁hantu	-3811
▁ubwenge	-3812
▁hegitari	-3813
ES	-3814
injiza	-3815
twite	-3816
nateri	-3817
▁masaha	-3818
▁gukoreshwa	-3819
cy	-3820
▁ahabwa	-3821
▁amazu	-3822
▁dukora	-3823
▁ndanga	-3824
ubutabera	-3825
meje	-3826
▁itike	-3827
▁yemeje	-3828
▁Burusiya	-3829
▁kose	-3830
▁Mana	-3831
shidi	-3832
▁ibyishimo	-3833
▁kur	-3834
▁wundi	-3835
▁ububasha	-3836
▁bare	-3837
▁itari	-3838
▁BK	-3839
muco	-3840
ranze	-3841
▁ugiye	-3842
▁igamije	-3843
▁mahugurwa	-3844
rable	-3845
un	-3846
▁Club	-3847
nyeri	-3848
▁ihu	-3849
▁bafata	-3850
▁ngufu	-3851
▁Kiyovu	-3852
lleyball	-3853
▁rwiyemezamirimo	-3854
▁MU	-3855
▁Eli	-3856
shakira	-3857
▁abarwayi	-3858
rabi	-3859
▁Kristo	-3860
meye	-3861
EN	-3862
Ra	-3863
▁tukaba	-3864
tabiriwe	-3865
▁wenda	-3866
▁mirenge	-3867
▁impamyabumenyi	-3868
YI	-3869
izina	-3870
bonano	-3871
kurwa	-3872
senyi	-3873
▁Bira	-3874
kanisha	-3875
▁ikirere	-3876
▁muco	-3877
▁zayo	-3878
▁ageze	-3879
▁ushaka	-3880
rembo	-3881
rwara	-3882
▁Ingabo	-3883
▁utuye	-3884
▁Pariki	-3885
sesengura	-3886
▁kohereza	-3887
gne	-3888
▁REG	-3889
urukundo	-3890
hembwa	-3891
▁telefoni	-3892
shema	-3893
▁FAR	-3894
▁Abahamya	-3895
zure	-3896
▁Niyon	-3897
▁igera	-3898
▁bakaza	-3899
▁gushyirwa	-3900
▁Kirehe	-3901
▁kumi	-3902
▁Honorable	-3903
▁Jeanne	-3904
▁mugihe	-3905
tangijwe	-3906
▁gutangaza	-3907
▁Tour	-3908
▁ijuru	-3909
▁cyemezo	-3910
▁ane	-3911
▁Kuki	-3912
▁Stade	-3913
iro	-3914
▁yakinnye	-3915
▁uzaba	-3916
▁Munyan	-3917
▁bishoboka	-3918
oma	-3919
▁amakimbirane	-3920
▁Ubushinjacyaha	-3921
▁gupfa	-3922
▁batanu	-3923
▁bimaze	-3924
kubiyemo	-3925
uku	-3926
burira	-3927
▁Kugira	-3928
▁bashiki	-3929
bire	-3930
inka	-3931
▁majyaruguru	-3932
beshya	-3933
▁bamenye	-3934
bira	-3935
▁mugi	-3936
uri	-3937
▁Ale	-3938
▁mubu	-3939
umuriro	-3940
▁yavuye	-3941
▁imbogamizi	-3942
▁kutu	-3943
▁tugiye	-3944
▁akomeye	-3945
▁League	-3946
abakinnyi	-3947
bunda	-3948
urwego	-3949
▁basaga	-3950
▁igomba	-3951
▁gishize	-3952
ando	-3953
Umujyi	-3954
▁gikombe	-3955
bangamira	-3956
▁cyiza	-3957
▁ntambara	-3958
hamaga	-3959
amas	-3960
itangazamakuru	-3961
▁bakozi	-3962
▁imanza	-3963
▁gufatanya	-3964
▁Gakenke	-3965
don	-3966
▁habaye	-3967
tuwe	-3968
▁rundi	-3969
▁Kinshasa	-3970
▁nini	-3971
taliki	-3972
▁Kiliziya	-3973
▁Banyarwanda	-3974
▁icyorezo	-3975
uburenganzira	-3976
▁yabaga	-3977
▁bagaragaza	-3978
tinda	-3979
▁gukunda	-3980
▁umujyi	-3981
▁byatangajwe	-3982
cungire	-3983
▁twese	-3984
▁yindi	-3985
▁firime	-3986
ayo	-3987
pima	-3988
soma	-3989
tine	-3990
▁bugufi	-3991
▁rivuga	-3992
shanu	-3993
umubiri	-3994
kure	-3995
imbo	-3996
▁habaho	-3997
Nda	-3998
▁yasobanuye	-3999
▁Kinyarwanda	-4000
▁Gasana	-4001
▁murongo	-4002
▁runini	-4003
▁icyiciro	-4004
▁mugoroba	-4005
▁ibitero	-4006
▁kubyara	-4007
▁amwe	-4008
Abadepite	-4009
▁Murakoze	-4010
▁ngabo	-4011
▁Padiri	-4012
▁impunzi	-4013
▁kwihan	-4014
▁Butare	-4015
hengeri	-4016
fashishije	-4017
hoza	-4018
▁Ijambo	-4019
▁Nsengi	-4020
guruka	-4021
hakana	-4022
ranywa	-4023
▁banjye	-4024
▁Itegeko	-4025
▁inyubako	-4026
▁abahanzi	-4027
▁kubafasha	-4028
buhamya	-4029
umunsi	-4030
▁kida	-4031
imodoka	-4032
▁icyenda	-4033
senateri	-4034
▁Bara	-4035
▁kum	-4036
▁tegeko	-4037
▁rubanda	-4038
▁kubahiriza	-4039
!”	-4040
▁Eu	-4041
TO	-4042
vangura	-4043
▁uki	-4044
▁toni	-4045
▁iminota	-4046
▁irindwi	-4047
▁Gisagara	-4048
▁Ber	-4049
▁Val	-4050
yejana	-4051
▁yegukanye	-4052
▁Com	-4053
tsiro	-4054
▁abwira	-4055
▁atangira	-4056
▁agu	-4057
terani	-4058
▁ikomeje	-4059
tesi	-4060
▁kanseri	-4061
▁basanga	-4062
.)	-4063
ngeyeho	-4064
EC	-4065
▁magana	-4066
▁Yu	-4067
▁akamu	-4068
▁avuye	-4069
▁umuziki	-4070
▁Kara	-4071
▁amavu	-4072
▁mbona	-4073
▁kubakwa	-4074
ard	-4075
▁asobanura	-4076
▁yakozwe	-4077
tandukana	-4078
▁wabi	-4079
jurire	-4080
kwirakwiza	-4081
▁Umujyi	-4082
▁rwabo	-4083
▁Pla	-4084
remye	-4085
tegetse	-4086
▁dukesha	-4087
amabuye	-4088
▁mpanuka	-4089
izo	-4090
umunya	-4091
▁uburwayi	-4092
gongo	-4093
umujyi	-4094
▁Komite	-4095
▁wahoze	-4096
▁Nyamara	-4097
▁bakomeza	-4098
yuho	-4099
▁taliki	-4100
urupfu	-4101
▁umukono	-4102
▁yerekana	-4103
▁zunze	-4104
▁ahagaragara	-4105
nko	-4106
jejwe	-4107
▁Cyumweru	-4108
▁Umunyarwanda	-4109
banye	-4110
sheho	-4111
▁guko	-4112
▁atuye	-4113
▁zigera	-4114
Inama	-4115
shoferi	-4116
rema	-4117
Aka	-4118
remi	-4119
▁bushya	-4120
shingiwe	-4121
▁birebana	-4122
▁bucuruzi	-4123
▁bakomeye	-4124
ANA	-4125
▁kubana	-4126
▁uyobora	-4127
▁kub	-4128
▁akavuga	-4129
GIHE	-4130
▁guharanira	-4131
▁bavu	-4132
▁akajya	-4133
raribonye	-4134
beho	-4135
▁zindi	-4136
▁umugambi	-4137
▁bubi	-4138
national	-4139
gezwa	-4140
rekanye	-4141
▁bito	-4142
ganza	-4143
▁ibihembo	-4144
ser	-4145
▁gusuzuma	-4146
▁kwerekana	-4147
▁IN	-4148
▁ishyamba	-4149
▁Ira	-4150
Inteko	-4151
▁Nyamagabe	-4152
▁urupfu	-4153
yoro	-4154
▁imiterere	-4155
▁jye	-4156
inshuti	-4157
▁imyumvire	-4158
▁for	-4159
mbira	-4160
ziba	-4161
▁yahoze	-4162
amadolari	-4163
samban	-4164
dagaduro	-4165
▁Rutsiro	-4166
▁bigomba	-4167
▁gucunga	-4168
▁bihu	-4169
▁bumwe	-4170
kwigendera	-4171
ibintu	-4172
▁abanyamuryango	-4173
rena	-4174
▁bakobwa	-4175
▁hifashishijwe	-4176
▁ubukangurambaga	-4177
res	-4178
▁Phi	-4179
▁bigeze	-4180
▁amarushanwa	-4181
zamutse	-4182
▁Umuntu	-4183
▁umuhungu	-4184
▁biru	-4185
▁Gihugu	-4186
▁igizwe	-4187
▁izwi	-4188
▁inganda	-4189
▁uyi	-4190
▁mike	-4191
▁mpuzabi	-4192
▁Bizimana	-4193
▁bigamije	-4194
geri	-4195
▁babaga	-4196
yunge	-4197
kuta	-4198
▁nako	-4199
UB	-4200
bari	-4201
line	-4202
vanga	-4203
abikorera	-4204
gram	-4205
minisitiri	-4206
▁agace	-4207
▁yagombaga	-4208
diyo	-4209
▁hato	-4210
girika	-4211
▁kuvuguru	-4212
shyitsi	-4213
▁yakiriye	-4214
shimiyimana	-4215
▁Twitter	-4216
▁ibyemezo	-4217
phe	-4218
▁nyiri	-4219
Du	-4220
▁yato	-4221
fatira	-4222
▁iteka	-4223
▁mpuzabitsina	-4224
▁twaba	-4225
té	-4226
per	-4227
▁Bru	-4228
hangano	-4229
Im	-4230
hanuzi	-4231
ubufatanye	-4232
habu	-4233
wanditsi	-4234
ingaruka	-4235
DE	-4236
zaga	-4237
▁bagu	-4238
ubumwe	-4239
▁bakoresheje	-4240
rekeje	-4241
▁isaha	-4242
amatungo	-4243
▁ibishoboka	-4244
▁Aga	-4245
yahudi	-4246
▁bahanzi	-4247
▁Habi	-4248
ishami	-4249
ney	-4250
▁Bri	-4251
▁iru	-4252
▁Kigo	-4253
▁bakunze	-4254
▁ariwe	-4255
▁Umukuru	-4256
▁ikiganiro	-4257
▁tubona	-4258
▁abatuye	-4259
▁Col	-4260
▁Oli	-4261
▁niwe	-4262
▁Amakuru	-4263
▁igitekerezo	-4264
▁Nza	-4265
▁gusubiza	-4266
▁yafashwe	-4267
rejwe	-4268
shumba	-4269
▁Budage	-4270
garagambyo	-4271
▁duce	-4272
▁Madamu	-4273
Si	-4274
sivi	-4275
▁bafashe	-4276
sengesho	-4277
▁buyobozi	-4278
▁ukwezi	-4279
▁abaganga	-4280
▁mibereho	-4281
▁Cy	-4282
▁utari	-4283
lamu	-4284
wemo	-4285
▁Ayo	-4286
▁ikorera	-4287
▁zibi	-4288
▁bufite	-4289
▁Nyabihu	-4290
Uburezi	-4291
▁Politiki	-4292
▁Dieu	-4293
cyari	-4294
▁yabu	-4295
hagarika	-4296
▁gushyin	-4297
rk	-4298
▁City	-4299
▁hakoreshejwe	-4300
▁ngoro	-4301
▁turimo	-4302
herejwe	-4303
▁ibizamini	-4304
▁ina	-4305
▁ibitabo	-4306
taye	-4307
cukuzi	-4308
▁guhunga	-4309
▁SAC	-4310
▁biterwa	-4311
teje	-4312
▁Nyu	-4313
zamura	-4314
▁azajya	-4315
▁kubaha	-4316
▁gufatwa	-4317
▁bifasha	-4318
Le	-4319
▁eshanu	-4320
umurenge	-4321
▁abanyarwanda	-4322
▁Kore	-4323
mpanyi	-4324
shyiramo	-4325
▁zirenga	-4326
▁kurangiza	-4327
▁Tariki	-4328
caye	-4329
girana	-4330
▁bigenda	-4331
▁Tanzaniya	-4332
kishije	-4333
sabe	-4334
▁Gro	-4335
gonda	-4336
▁byakozwe	-4337
Reba	-4338
mbitse	-4339
▁basanze	-4340
▁imyanzuro	-4341
tsibo	-4342
▁bakamu	-4343
▁abagera	-4344
Urwego	-4345
ganisha	-4346
▁Basketball	-4347
▁rishingiye	-4348
▁igitaramo	-4349
UM	-4350
▁rwan	-4351
rukana	-4352
▁Mukura	-4353
▁II	-4354
huta	-4355
▁And	-4356
kurura	-4357
▁Ngororero	-4358
▁ibisabwa	-4359
▁zara	-4360
▁kamere	-4361
▁biki	-4362
sangira	-4363
Yo	-4364
ubw	-4365
bukije	-4366
▁Umugabo	-4367
▁ubuhamya	-4368
fungiye	-4369
▁kwiteza	-4370
▁Cent	-4371
ys	-4372
imbere	-4373
▁abayi	-4374
▁Reka	-4375
▁yapfuye	-4376
▁Interahamwe	-4377
mina	-4378
▁irenga	-4379
▁ubusanzwe	-4380
▁kuboneka	-4381
▁El	-4382
▁badafite	-4383
land	-4384
▁guhe	-4385
▁ishinga	-4386
Co	-4387
▁gishobora	-4388
Kuri	-4389
gaze	-4390
▁tuda	-4391
mamaza	-4392
▁Wil	-4393
▁Kandi	-4394
▁yaravuze	-4395
▁gushakisha	-4396
▁yiga	-4397
ny	-4398
shaje	-4399
▁Alex	-4400
yongeraho	-4401
bure	-4402
abasirikare	-4403
byin	-4404
manzi	-4405
▁Koperative	-4406
inya	-4407
▁Gisenyi	-4408
temewe	-4409
▁utaha	-4410
tekerere	-4411
tya	-4412
▁IGIHE	-4413
▁manda	-4414
▁yuzuye	-4415
shidikanya	-4416
▁Dore	-4417
▁Niyi	-4418
▁yasin	-4419
▁kanya	-4420
tangabuhamya	-4421
umutwe	-4422
urugo	-4423
umwami	-4424
▁mihanda	-4425
hishe	-4426
▁yigeze	-4427
▁yatu	-4428
umutungo	-4429
ubushobozi	-4430
▁ava	-4431
garagajwe	-4432
▁amatungo	-4433
▁Volleyball	-4434
garariye	-4435
▁nto	-4436
dou	-4437
▁basabwa	-4438
▁yitabiriye	-4439
▁VC	-4440
▁ahe	-4441
▁yaka	-4442
imbuto	-4443
▁gusin	-4444
mine	-4445
hirwa	-4446
▁Dani	-4447
▁umuhanzi	-4448
yoma	-4449
ibiza	-4450
simbura	-4451
▁SACCO	-4452
▁akoresheje	-4453
▁/	-4454
ubushakashatsi	-4455
▁Ste	-4456
▁twabi	-4457
▁bahura	-4458
cisha	-4459
bangamiye	-4460
gwin	-4461
ijoro	-4462
misha	-4463
▁gitero	-4464
ction	-4465
▁kubyi	-4466
▁tsinda	-4467
▁are	-4468
▁yize	-4469
▁umurongo	-4470
ndation	-4471
▁ryose	-4472
kiya	-4473
kundi	-4474
rizo	-4475
▁Haki	-4476
▁kirimo	-4477
pani	-4478
▁ibirori	-4479
▁mishinga	-4480
▁ituma	-4481
mererwa	-4482
▁mukinnyi	-4483
inyama	-4484
ruwasi	-4485
▁abaza	-4486
ibinyabuzima	-4487
▁yanyu	-4488
▁gutangiza	-4489
▁Tura	-4490
inisiteri	-4491
yeshyamba	-4492
Ki	-4493
▁gutaha	-4494
▁batanze	-4495
tangire	-4496
wacu	-4497
▁Cana	-4498
▁poro	-4499
tanira	-4500
sobanurira	-4501
hereje	-4502
▁ishoramari	-4503
AL	-4504
gayi	-4505
Ntabwo	-4506
generwa	-4507
der	-4508
hire	-4509
▁ihohoterwa	-4510
▁ibitaro	-4511
▁imashini	-4512
▁Yaba	-4513
umushinga	-4514
▁kwitegura	-4515
int	-4516
nje	-4517
▁akabi	-4518
ence	-4519
fri	-4520
banutse	-4521
▁Gatsibo	-4522
aya	-4523
▁Paris	-4524
▁ntawe	-4525
▁kwagura	-4526
GO	-4527
▁Cyan	-4528
▁abazi	-4529
Inkotanyi	-4530
▁bava	-4531
▁Nteko	-4532
▁amatwi	-4533
▁arenga	-4534
rukiramuco	-4535
▁imyitwarire	-4536
byaro	-4537
shobore	-4538
▁yabanje	-4539
icyumweru	-4540
myo	-4541
▁kuburyo	-4542
genami	-4543
umwuka	-4544
▁Ve	-4545
▁muru	-4546
▁bakorana	-4547
tandukanya	-4548
ejo	-4549
▁kuvura	-4550
sanya	-4551
▁buke	-4552
hamye	-4553
hutisha	-4554
ons	-4555
▁pro	-4556
▁Augu	-4557
tike	-4558
▁aribo	-4559
Itegeko	-4560
fura	-4561
▁indanga	-4562
▁matsinda	-4563
tekerereze	-4564
mico	-4565
▁nibo	-4566
▁yemera	-4567
▁amasoko	-4568
cira	-4569
meri	-4570
pfi	-4571
ngane	-4572
▁Undi	-4573
▁igitero	-4574
▁kwizihiza	-4575
▁Ikinyarwanda	-4576
▁abanyamakuru	-4577
▁iha	-4578
▁Naho	-4579
▁kwigira	-4580
▁sta	-4581
kundaga	-4582
guke	-4583
▁majyepfo	-4584
toni	-4585
▁Prof	-4586
butse	-4587
hugura	-4588
sohoye	-4589
▁FARDC	-4590
▁kwitwara	-4591
cunga	-4592
mpinga	-4593
▁imisoro	-4594
▁kwemera	-4595
▁misozi	-4596
koma	-4597
yapani	-4598
▁Hanyuma	-4599
hubwo	-4600
mbera	-4601
Ubumwe	-4602
Umukuru	-4603
sobe	-4604
▁Yari	-4605
▁batazi	-4606
vin	-4607
gume	-4608
garamu	-4609
▁nga	-4610
giraga	-4611
sigara	-4612
rongera	-4613
▁bashya	-4614
bwire	-4615
itera	-4616
zambi	-4617
▁inzi	-4618
mariya	-4619
tekereje	-4620
▁mubyeyi	-4621
▁Nyaruguru	-4622
risti	-4623
▁gusu	-4624
▁abakora	-4625
▁yatanzwe	-4626
ée	-4627
▁ca	-4628
roc	-4629
tsweho	-4630
▁mijyi	-4631
komera	-4632
genamigambi	-4633
▁Inno	-4634
▁byagenze	-4635
▁cyumba	-4636
lia	-4637
▁Pu	-4638
ibidukikije	-4639
▁UM	-4640
simbuye	-4641
indirimbo	-4642
▁bizatuma	-4643
▁International	-4644
▁mwinshi	-4645
▁ubushake	-4646
▁IC	-4647
rona	-4648
▁ute	-4649
takaza	-4650
kurikiyeho	-4651
DF	-4652
SH	-4653
inema	-4654
hurira	-4655
▁yasubi	-4656
▁bemeza	-4657
stine	-4658
kubiri	-4659
▁ntera	-4660
zeyimana	-4661
▁urutonde	-4662
▁burasirazuba	-4663
▁itara	-4664
yambaro	-4665
▁Rusange	-4666
▁umuhango	-4667
▁man	-4668
▁akwiye	-4669
▁ubwabo	-4670
▁ub	-4671
▁myanya	-4672
imba	-4673
▁iwe	-4674
▁Akagari	-4675
▁cyorezo	-4676
▁kwemeza	-4677
shuli	-4678
▁ntaho	-4679
▁Niyo	-4680
▁bihagije	-4681
rds	-4682
▁para	-4683
▁yaguye	-4684
lemu	-4685
vunyi	-4686
▁enye	-4687
▁ireme	-4688
kishwa	-4689
kurikiye	-4690
ber	-4691
▁rifite	-4692
yamamare	-4693
▁babyeyi	-4694
▁Ai	-4695
gy	-4696
hantu	-4697
▁waje	-4698
abanya	-4699
▁Abandi	-4700
neza	-4701
▁gusiga	-4702
shushanyo	-4703
▁gukin	-4704
▁dosiye	-4705
▁Cya	-4706
▁baho	-4707
▁bashinzwe	-4708
aniwe	-4709
▁mutu	-4710
▁agenda	-4711
buranisha	-4712
▁Mali	-4713
gendan	-4714
deo	-4715
pan	-4716
red	-4717
▁afata	-4718
▁agamije	-4719
▁Izi	-4720
▁sin	-4721
amatora	-4722
▁kuruta	-4723
makaza	-4724
las	-4725
buri	-4726
▁Vin	-4727
giran	-4728
▁Sene	-4729
basiye	-4730
▁Perefegitura	-4731
▁babyi	-4732
duka	-4733
▁bahita	-4734
imihindagurikire	-4735
▁Bar	-4736
▁Fou	-4737
manya	-4738
▁Mini	-4739
▁Abayobozi	-4740
▁Umugore	-4741
▁bushingiye	-4742
▁Nyi	-4743
▁Ange	-4744
itu	-4745
koreshereze	-4746
▁James	-4747
▁twara	-4748
▁masoko	-4749
sso	-4750
giti	-4751
izuba	-4752
▁televiziyo	-4753
▁muza	-4754
mond	-4755
ruza	-4756
kubiye	-4757
▁Ndu	-4758
PRC	-4759
gama	-4760
reen	-4761
▁ivu	-4762
▁mupira	-4763
shakisha	-4764
Nk	-4765
▁Abana	-4766
▁ikimenyetso	-4767
nse	-4768
▁Cle	-4769
▁cyitwa	-4770
▁umusore	-4771
▁musozi	-4772
fashijwe	-4773
cial	-4774
▁Papa	-4775
▁yemeye	-4776
kuze	-4777
▁muba	-4778
▁mushiki	-4779
▁angana	-4780
▁Nshimiyimana	-4781
hinduye	-4782
▁akoresha	-4783
▁yagarutse	-4784
inganda	-4785
abanyamakuru	-4786
abata	-4787
▁Ruta	-4788
▁ndege	-4789
ND	-4790
ct	-4791
yezu	-4792
umurimo	-4793
▁yashyizeho	-4794
shyimbo	-4795
▁komite	-4796
▁imitungo	-4797
▁;	-4798
tiriwe	-4799
komereza	-4800
▁bukungu	-4801
▁rukomeye	-4802
▁rwibutso	-4803
limi	-4804
tega	-4805
▁Mozambi	-4806
Imari	-4807
▁igiciro	-4808
▁biturutse	-4809
▁zaba	-4810
▁TV	-4811
ingengo	-4812
au	-4813
▁Chi	-4814
▁bwacu	-4815
ganijwe	-4816
▁PS	-4817
fari	-4818
▁Biteganyijwe	-4819
▁yahu	-4820
▁ifumbire	-4821
komo	-4822
▁amase	-4823
▁bumenyi	-4824
▁byatuma	-4825
kuraho	-4826
ibiribwa	-4827
▁kumenye	-4828
rike	-4829
▁kaga	-4830
▁abata	-4831
tegurwa	-4832
▁ishyirwa	-4833
▁nyamu	-4834
▁turebe	-4835
▁kubikora	-4836
▁ubwicanyi	-4837
▁ifasha	-4838
IP	-4839
dari	-4840
▁rushinzwe	-4841
koni	-4842
▁guseze	-4843
▁ahagana	-4844
▁kudu	-4845
▁byayo	-4846
hagarara	-4847
▁rukundo	-4848
▁me	-4849
soni	-4850
cia	-4851
▁urimo	-4852
▁kugaruka	-4853
banki	-4854
▁bam	-4855
▁imbunda	-4856
▁Gato	-4857
Abaturage	-4858
umukinnyi	-4859
nziza	-4860
▁akunda	-4861
umuhungu	-4862
▁yatewe	-4863
RE	-4864
toro	-4865
neti	-4866
▁bisa	-4867
▁Soma	-4868
▁binyuranye	-4869
▁Mba	-4870
fungurwa	-4871
▁mwanzuro	-4872
▁byagaragaye	-4873
yoboke	-4874
▁hazaza	-4875
gugu	-4876
▁Augustin	-4877
ona	-4878
yire	-4879
umutima	-4880
▁nkambi	-4881
▁zimaze	-4882
cakubiri	-4883
▁ajyanye	-4884
▁li	-4885
▁Sh	-4886
Ibyo	-4887
Soma	-4888
mpaka	-4889
▁zinyuranye	-4890
nan	-4891
rerwa	-4892
yobwa	-4893
▁ubuvuzi	-4894
▁umunyamakuru	-4895
harara	-4896
▁yerekeza	-4897
▁burezi	-4898
bum	-4899
▁ngiye	-4900
garagazwa	-4901
lisa	-4902
▁hamaze	-4903
veni	-4904
wango	-4905
▁cyaba	-4906
▁bishingiye	-4907
▁Indi	-4908
siteri	-4909
▁Ur	-4910
▁bahe	-4911
hizamu	-4912
▁aherutse	-4913
ibu	-4914
iryo	-4915
riri	-4916
▁inter	-4917
▁Ruhengeri	-4918
▁biti	-4919
mpike	-4920
▁bitwa	-4921
yerekezo	-4922
▁bigoye	-4923
abaganga	-4924
▁guhagara	-4925
Um	-4926
opi	-4927
rega	-4928
tarenze	-4929
sabimana	-4930
amakipe	-4931
▁gutora	-4932
▁Ingabire	-4933
.’’	-4934
▁bibaye	-4935
▁kiyaga	-4936
▁Abe	-4937
▁guterwa	-4938
▁yasanze	-4939
▁ibu	-4940
▁Umwana	-4941
▁kwiyamamaza	-4942
mbaza	-4943
kekwaho	-4944
iterabwoba	-4945
itsinda	-4946
▁kugarura	-4947
▁nara	-4948
▁rugero	-4949
▁aravuga	-4950
▁Kabuga	-4951
né	-4952
▁Gra	-4953
▁bawu	-4954
▁rikomeye	-4955
shyikiriza	-4956
UT	-4957
▁bukomeye	-4958
▁kilometero	-4959
▁IB	-4960
negihugu	-4961
▁Patrick	-4962
▁igitabo	-4963
▁itandatu	-4964
▁Ric	-4965
▁Mukan	-4966
▁cyabaye	-4967
▁ibiza	-4968
▁masomo	-4969
tambo	-4970
shyingu	-4971
▁bize	-4972
▁zacu	-4973
▁mupaka	-4974
▁ibiribwa	-4975
mbabwe	-4976
▁bamwi	-4977
ranyijwe	-4978
▁imipaka	-4979
▁umwihariko	-4980
▁bitanu	-4981
▁yakoresheje	-4982
▁Burasirazuba	-4983
ger	-4984
▁Hotel	-4985
▁isonga	-4986
▁yinjiye	-4987
▁Am	-4988
sungane	-4989
▁Intara	-4990
ciri	-4991
enter	-4992
▁kwicwa	-4993
▁Mugisha	-4994
▁Foundation	-4995
iy	-4996
▁Izo	-4997
▁bine	-4998
ibyaha	-4999
▁gitsina	-5000
▁kiga	-5001
▁Remera	-5002
▁tumaze	-5003
▁ntiyi	-5004
▁Hagati	-5005
▁kuzamuka	-5006
▁gushishikariza	-5007
▁fo	-5008
Ibya	-5009
ruye	-5010
sanganyama	-5011
▁Bwana	-5012
▁rura	-5013
▁Abakristo	-5014
▁Nyarwanda	-5015
mbya	-5016
▁bakina	-5017
▁Vincent	-5018
komeretse	-5019
muriza	-5020
thiopi	-5021
zenguruka	-5022
▁yavugaga	-5023
ens	-5024
▁ibinyabiziga	-5025
alth	-5026
hisemo	-5027
buharara	-5028
▁bwakozwe	-5029
▁Ruse	-5030
▁imitwe	-5031
▁twifuza	-5032
▁Ibikorwa	-5033
rne	-5034
▁konti	-5035
▁atangaza	-5036
▁Tele	-5037
abagize	-5038
kinamico	-5039
▁ishingiye	-5040
guma	-5041
virus	-5042
▁mura	-5043
▁#	-5044
▁kuzana	-5045
▁munani	-5046
gogo	-5047
▁ikirego	-5048
tangiriye	-5049
▁rukaba	-5050
ok	-5051
versi	-5052
▁akan	-5053
▁abivuga	-5054
giraho	-5055
▁igeze	-5056
hazabu	-5057
kiriwe	-5058
▁bwayo	-5059
▁Innocent	-5060
▁isiganwa	-5061
▁yakoraga	-5062
ffi	-5063
sitiri	-5064
▁Gahunda	-5065
timana	-5066
kurya	-5067
▁abafana	-5068
binyujije	-5069
garagariza	-5070
meka	-5071
Ububanyi	-5072
▁avu	-5073
▁bina	-5074
sanganyamatsiko	-5075
▁Theo	-5076
bikora	-5077
▁yakwi	-5078
itorero	-5079
▁cyenda	-5080
▁inyigisho	-5081
use	-5082
tete	-5083
▁ibanga	-5084
▁haka	-5085
▁iyobowe	-5086
▁habayeho	-5087
fate	-5088
▁mpa	-5089
nyura	-5090
▁ariho	-5091
hol	-5092
aman	-5093
▁ingengo	-5094
▁bahungiye	-5095
▁icyumweru	-5096
rwanira	-5097
▁Umunya	-5098
▁Che	-5099
▁kibi	-5100
funguye	-5101
kuwe	-5102
▁Afrika	-5103
terineti	-5104
▁Zimbabwe	-5105
twika	-5106
▁Yabi	-5107
Pa	-5108
▁abarokotse	-5109
Ye	-5110
rine	-5111
mirwa	-5112
▁Ahubwo	-5113
▁ndende	-5114
ciriritse	-5115
▁bishya	-5116
▁bivuga	-5117
Uburusiya	-5118
▁yabitangaje	-5119
Po	-5120
▁uw	-5121
▁kagari	-5122
situ	-5123
▁nkiko	-5124
▁komisiyo	-5125
▁umuvuduko	-5126
aha	-5127
▁kivuga	-5128
▁kumara	-5129
▁urubuga	-5130
ène	-5131
gezaho	-5132
▁ubukwe	-5133
▁bahuriye	-5134
▁umukuru	-5135
▁ubuhanga	-5136
▁IPRC	-5137
▁Canada	-5138
▁intumwa	-5139
▁Dia	-5140
▁Awa	-5141
EM	-5142
▁ubure	-5143
▁Petero	-5144
shimangiye	-5145
▁un	-5146
tic	-5147
▁abamu	-5148
▁Umunsi	-5149
▁yihariye	-5150
hanwa	-5151
rebwa	-5152
▁heza	-5153
icyaha	-5154
▁rikaba	-5155
▁bishimiye	-5156
ngola	-5157
▁ubura	-5158
giritse	-5159
▁Ishuri	-5160
▁nibi	-5161
nararibonye	-5162
▁Kab	-5163
ata	-5164
kamo	-5165
▁kubanza	-5166
▁byoroshye	-5167
ac	-5168
ff	-5169
tra	-5170
Uhoraho	-5171
▁abakunzi	-5172
▁ubuziranenge	-5173
▁Rw	-5174
▁Sen	-5175
▁tumu	-5176
ddy	-5177
▁RDB	-5178
menyo	-5179
▁isura	-5180
giteri	-5181
kurikijwe	-5182
▁bakomoka	-5183
mbia	-5184
muzin	-5185
randa	-5186
▁bifitanye	-5187
▁bushobozi	-5188
▁mazu	-5189
▁agenga	-5190
▁yashyizwe	-5191
▁nshingwabikorwa	-5192
tiro	-5193
▁biteguye	-5194
▁adu	-5195
gurube	-5196
▁araba	-5197
▁amafoto	-5198
xi	-5199
▁mbo	-5200
▁Sita	-5201
▁gusoza	-5202
▁uwitwa	-5203
amasezerano	-5204
Umunyamabanga	-5205
wubatsi	-5206
▁buhoro	-5207
▁ingano	-5208
▁Ce	-5209
▁gucuruza	-5210
▁ruba	-5211
▁burimo	-5212
hungabana	-5213
▁basigaye	-5214
▁iherereye	-5215
fuka	-5216
▁akorera	-5217
▁impapuro	-5218
Tura	-5219
enne	-5220
▁rika	-5221
▁kwegukana	-5222
▁kika	-5223
yongere	-5224
▁mabwiriza	-5225
MIN	-5226
lempike	-5227
▁Museveni	-5228
Iburengerazuba	-5229
ue	-5230
▁Wor	-5231
muzinzi	-5232
teraniro	-5233
ronavirus	-5234
IT	-5235
YO	-5236
▁umwarimu	-5237
▁Ali	-5238
▁asa	-5239
rinzi	-5240
▁Samu	-5241
▁umukunzi	-5242
▁buga	-5243
▁babone	-5244
▁uha	-5245
▁atanu	-5246
Amahanga	-5247
▁Paruwasi	-5248
▁Hakizimana	-5249
chester	-5250
URA	-5251
motari	-5252
▁gutura	-5253
sabagina	-5254
od	-5255
▁EAC	-5256
▁kimaze	-5257
tegerere	-5258
▁gushora	-5259
Umuvugizi	-5260
ngwe	-5261
▁yavutse	-5262
▁abacuruzi	-5263
ay	-5264
▁biha	-5265
banire	-5266
mutima	-5267
gereranya	-5268
taliyani	-5269
▁bashoboye	-5270
nta	-5271
▁nzo	-5272
▁ndimi	-5273
▁ibiryo	-5274
▁yashimye	-5275
die	-5276
▁bakavuga	-5277
jisho	-5278
▁kugwa	-5279
▁bukaba	-5280
▁witwaga	-5281
▁Iryo	-5282
▁bibu	-5283
▁isaba	-5284
kenerwa	-5285
sabira	-5286
▁yagaragaye	-5287
▁ujya	-5288
tiki	-5289
▁Arse	-5290
▁ugira	-5291
▁abapolisi	-5292
sine	-5293
▁nijoro	-5294
nza	-5295
ngoro	-5296
▁yiteguye	-5297
ibiciro	-5298
ishyaka	-5299
▁muzika	-5300
▁yongera	-5301
▁Satani	-5302
wn	-5303
fuje	-5304
ibitaro	-5305
▁Koreya	-5306
▁SE	-5307
site	-5308
▁uwari	-5309
▁Umuhanzi	-5310
shejwe	-5311
▁hagiye	-5312
▁bigera	-5313
▁urugamba	-5314
▁Jya	-5315
AS	-5316
▁niho	-5317
vukiye	-5318
tabirwa	-5319
▁abikorera	-5320
icyorezo	-5321
▁&	-5322
subizwa	-5323
▁zisaga	-5324
▁ubutwari	-5325
▁inyamaswa	-5326
mwuga	-5327
rugero	-5328
▁FERWA	-5329
icyiciro	-5330
▁hana	-5331
▁riba	-5332
▁Ubushakashatsi	-5333
▁fa	-5334
korezi	-5335
▁Umukozi	-5336
▁ukorera	-5337
isuku	-5338
▁babarirwa	-5339
rama	-5340
▁Amahoro	-5341
▁Ethiopi	-5342
▁igenda	-5343
hondo	-5344
▁kitari	-5345
▁mashya	-5346
gumesitiri	-5347
▁ruka	-5348
sitani	-5349
mamaye	-5350
▁byatewe	-5351
▁yitabye	-5352
abavandimwe	-5353
▁ino	-5354
nte	-5355
tro	-5356
media	-5357
bashije	-5358
▁Ishami	-5359
▁guhana	-5360
▁gusenga	-5361
▁ibaruwa	-5362
tezwe	-5363
▁Ana	-5364
▁babashe	-5365
▁ijwi	-5366
gishije	-5367
▁bwu	-5368
cibwa	-5369
babaje	-5370
▁mibare	-5371
▁batandatu	-5372
▁Rusesabagina	-5373
enga	-5374
▁Icyi	-5375
▁azwi	-5376
▁nazo	-5377
▁uvuye	-5378
▁uhereye	-5379
▁kuvugurura	-5380
▁imyanya	-5381
gejejwe	-5382
▁ibyabaye	-5383
pti	-5384
▁basa	-5385
▁izamu	-5386
▁ukiri	-5387
sabaga	-5388
▁utara	-5389
▁barangije	-5390
▁ubuvugizi	-5391
▁Abisiraheli	-5392
ubukerarugendo	-5393
litiro	-5394
▁rwiza	-5395
▁gihembwe	-5396
tions	-5397
▁wabereye	-5398
tegererezo	-5399
▁Sam	-5400
▁awu	-5401
▁bafashwe	-5402
mirambo	-5403
▁Nyagasani	-5404
▁bitarenze	-5405
cyan	-5406
▁ingenzi	-5407
kize	-5408
▁asaga	-5409
amagare	-5410
hato	-5411
▁mpe	-5412
inkiko	-5413
kh	-5414
▁kuti	-5415
▁Siporo	-5416
▁ne	-5417
tini	-5418
▁kabu	-5419
kanywe	-5420
▁soko	-5421
roheje	-5422
▁nkunga	-5423
yika	-5424
▁Ara	-5425
▁ruzinduko	-5426
ZI	-5427
bati	-5428
▁Tuyi	-5429
▁gutyo	-5430
▁Kame	-5431
▁nibyo	-5432
amaraso	-5433
▁nkengero	-5434
ço	-5435
pfobya	-5436
▁isomo	-5437
▁bapfuye	-5438
▁kuririmba	-5439
anirwa	-5440
siganwa	-5441
stagram	-5442
▁ihuriro	-5443
▁mbonera	-5444
Ubutegetsi	-5445
▁bakwi	-5446
sifu	-5447
voka	-5448
▁Lou	-5449
▁icumu	-5450
▁porogaramu	-5451
ndera	-5452
▁bahuye	-5453
▁serivise	-5454
yamategeko	-5455
▁Ibiro	-5456
▁Maroc	-5457
▁rukora	-5458
▁gukorerwa	-5459
▁Den	-5460
ngani	-5461
yugari	-5462
abibumbye	-5463
ad	-5464
▁bikomeje	-5465
▁byacu	-5466
▁Jeannette	-5467
▁izuba	-5468
▁yambaye	-5469
koreraga	-5470
▁urubyaro	-5471
cumu	-5472
▁inzara	-5473
The	-5474
▁Thi	-5475
▁Munye	-5476
▁imyanda	-5477
▁kugerageza	-5478
MS	-5479
yita	-5480
▁Bari	-5481
▁ngamba	-5482
▁Senegal	-5483
abanyarwanda	-5484
ibiti	-5485
▁tuki	-5486
▁guhitamo	-5487
▁»	-5488
hard	-5489
▁Filime	-5490
▁bushake	-5491
▁Mozambique	-5492
isa	-5493
intebe	-5494
▁Kimi	-5495
sanzure	-5496
▁ingana	-5497
politiki	-5498
drid	-5499
▁umurambo	-5500
magara	-5501
kurikirwa	-5502
▁mpande	-5503
▁biyemeje	-5504
yongereyeho	-5505
Ko	-5506
▁bajye	-5507
▁ukuba	-5508
▁da	-5509
cana	-5510
▁ngoma	-5511
shimana	-5512
▁Impamvu	-5513
▁ubukene	-5514
hiro	-5515
▁ibye	-5516
▁yate	-5517
▁Bityo	-5518
CA	-5519
tabire	-5520
▁bikaza	-5521
▁bimenyetso	-5522
har	-5523
▁DRC	-5524
shyire	-5525
▁Sou	-5526
dindi	-5527
imirimo	-5528
▁yaseze	-5529
sirayeli	-5530
▁Angola	-5531
▁Kabgayi	-5532
▁agahinda	-5533
▁bise	-5534
bwirwa	-5535
guka	-5536
kuza	-5537
rita	-5538
mezwa	-5539
vugurura	-5540
RD	-5541
▁g	-5542
abahungu	-5543
▁African	-5544
▁imirire	-5545
▁Gatolika	-5546
Ikinyarwanda	-5547
▁imvugo	-5548
▁internet	-5549
▁kugirana	-5550
ance	-5551
lindo	-5552
▁hazaba	-5553
yoboraga	-5554
▁bushobora	-5555
lone	-5556
▁Vic	-5557
▁san	-5558
▁Madrid	-5559
▁zituma	-5560
tt	-5561
ppe	-5562
bajije	-5563
liyari	-5564
▁Amavubi	-5565
rekeranye	-5566
▁Manchester	-5567
▁busa	-5568
yoborwa	-5569
▁muturage	-5570
▁ishema	-5571
▁Yongeyeho	-5572
kurikiranye	-5573
cade	-5574
jima	-5575
peri	-5576
gendeye	-5577
Ishami	-5578
▁cyara	-5579
▁kuzaba	-5580
▁minisiteri	-5581
babi	-5582
giramo	-5583
Amakuru	-5584
▁Car	-5585
fatiye	-5586
▁bigiye	-5587
cara	-5588
▁Nor	-5589
▁Ubusanzwe	-5590
▁gusobanukirwa	-5591
chool	-5592
▁aribwo	-5593
▁bafitanye	-5594
▁umuvandimwe	-5595
Bu	-5596
tes	-5597
▁Wi	-5598
tizi	-5599
▁aribyo	-5600
▁basabye	-5601
▁umurere	-5602
▁Nsabimana	-5603
▁umureremedia	-5604
▁Nyampinga	-5605
▁kinyejana	-5606
▁kugurisha	-5607
▁ashinjwa	-5608
▁bukabije	-5609
isu	-5610
▁su	-5611
lles	-5612
▁imyuga	-5613
▁nganda	-5614
▁urebye	-5615
▁Buhinde	-5616
▁byagiye	-5617
illa	-5618
muha	-5619
▁Sin	-5620
▁abaha	-5621
▁amaboko	-5622
▁abarwanyi	-5623
orge	-5624
▁Har	-5625
▁guhita	-5626
▁maboko	-5627
tegerejwe	-5628
▁hashingiwe	-5629
TN	-5630
▁Kwa	-5631
▁aje	-5632
▁Isiraheli	-5633
mbika	-5634
▁bwan	-5635
▁Olivier	-5636
▁Mariya	-5637
▁Raporo	-5638
▁gipimo	-5639
shyikirizwa	-5640
▁hakurikijwe	-5641
▁Kimwe	-5642
jyanywe	-5643
und	-5644
kode	-5645
byini	-5646
▁ngira	-5647
,”	-5648
nyezamu	-5649
▁Rulindo	-5650
▁umunyeshuri	-5651
car	-5652
herukaga	-5653
Ubuyobozi	-5654
▁nyamukuru	-5655
▁uruhushya	-5656
bwiraga	-5657
▁kubwira	-5658
▁udushya	-5659
▁inkingo	-5660
mas	-5661
▁Yara	-5662
▁murwa	-5663
▁murima	-5664
abahanzi	-5665
▁akeneye	-5666
▁gufungura	-5667
▁yishimiye	-5668
mwo	-5669
▁indishyi	-5670
Mat	-5671
▁imibonano	-5672
ranije	-5673
▁mitwe	-5674
▁ntitu	-5675
lie	-5676
nywa	-5677
irobi	-5678
▁nkaba	-5679
▁ukuriye	-5680
umusaruro	-5681
▁ikaza	-5682
rizwamo	-5683
▁barabi	-5684
▁kwitabwaho	-5685
manuka	-5686
Ikirenga	-5687
bahi	-5688
huka	-5689
imyuga	-5690
yiriza	-5691
▁bundi	-5692
▁Nshinga	-5693
▁akurikiranyweho	-5694
tutu	-5695
tunguranye	-5696
mpe	-5697
Ubwami	-5698
ruzalemu	-5699
Yavuze	-5700
▁Champi	-5701
umvikane	-5702
▁bangana	-5703
KA	-5704
hungiye	-5705
▁itsinze	-5706
▁filimi	-5707
wanzi	-5708
▁DR	-5709
rence	-5710
tumva	-5711
garagaramo	-5712
remwa	-5713
litike	-5714
▁babana	-5715
▁litiro	-5716
▁intsinzi	-5717
Iterambere	-5718
keka	-5719
▁ifoto	-5720
kurikiraho	-5721
gororwa	-5722
yanditswe	-5723
▁inyi	-5724
▁yazi	-5725
▁Ishimwe	-5726
siwe	-5727
turiye	-5728
▁izajya	-5729
▁rumaze	-5730
yugariro	-5731
moni	-5732
▁Jan	-5733
shisho	-5734
▁ryita	-5735
▁Nairobi	-5736
sia	-5737
▁Fé	-5738
caca	-5739
ting	-5740
▁zan	-5741
▁tugira	-5742
▁umupaka	-5743
▁watangiye	-5744
▁Ad	-5745
gijwe	-5746
▁Ibya	-5747
turire	-5748
▁Bimwe	-5749
▁musaza	-5750
▁impande	-5751
▁guhinduka	-5752
kemuka	-5753
versity	-5754
▁kigaragaza	-5755
▁Muntu	-5756
▁yatwaye	-5757
▁ibisobanuro	-5758
▁Jac	-5759
▁irya	-5760
▁abonye	-5761
▁gutoza	-5762
▁kwambara	-5763
yeri	-5764
ustin	-5765
▁nteko	-5766
▁Yeruzalemu	-5767
▁des	-5768
hariwe	-5769
▁kumvikana	-5770
▁kwamamaza	-5771
yansi	-5772
mikoro	-5773
▁Habin	-5774
▁bwicanyi	-5775
▁umugisha	-5776
▁nyakwigendera	-5777
▁ubukerarugendo	-5778
songa	-5779
▁inyo	-5780
▁maku	-5781
sangaga	-5782
▁bwanjye	-5783
▁sina	-5784
ngerwa	-5785
▁akina	-5786
gufasha	-5787
▁Center	-5788
shyuye	-5789
▁yakuye	-5790
▁akomoka	-5791
▁amavuta	-5792
▁Ethiopia	-5793
▁yatangarije	-5794
▁byabereye	-5795
▁ibikomere	-5796
nior	-5797
▁aru	-5798
amata	-5799
shimu	-5800
▁Haba	-5801
▁beza	-5802
abarimu	-5803
▁gishanga	-5804
▁kwimakaza	-5805
▁Abanyeshuri	-5806
▁wumva	-5807
kanwe	-5808
▁bumvi	-5809
komereka	-5810
ubwiyunge	-5811
menyin	-5812
holandi	-5813
yose	-5814
▁ruhame	-5815
▁gukwirakwiza	-5816
mar	-5817
guha	-5818
▁Koko	-5819
komeretsa	-5820
▁Frank	-5821
▁zikora	-5822
imikorere	-5823
▁interineti	-5824
▁yashyizweho	-5825
iby	-5826
ije	-5827
tingi	-5828
menyingiro	-5829
Minisitiri	-5830
▁Arena	-5831
▁atazi	-5832
riyeri	-5833
▁ikamba	-5834
▁gushimangira	-5835
baya	-5836
tiyo	-5837
▁wagize	-5838
pri	-5839
inko	-5840
▁tere	-5841
▁ukwizera	-5842
▁byatangiye	-5843
yavutse	-5844
▁gusobanura	-5845
zimu	-5846
hangan	-5847
▁ubuda	-5848
▁kizaba	-5849
rn	-5850
umuhanda	-5851
▁yamenye	-5852
▁Urubyiruko	-5853
id	-5854
▁ro	-5855
▁Mwa	-5856
kiranya	-5857
▁kwanga	-5858
▁bishimira	-5859
ork	-5860
Ariko	-5861
gwate	-5862
▁bagombaga	-5863
mun	-5864
▁mano	-5865
▁yishwe	-5866
▁mikorere	-5867
▁ubushinjacyaha	-5868
▁Samuel	-5869
▁Bra	-5870
▁Imibare	-5871
abanyamahanga	-5872
▁Nyaba	-5873
▁bwawe	-5874
shyurira	-5875
▁Arsenal	-5876
▁yagizwe	-5877
deri	-5878
guze	-5879
dende	-5880
padiri	-5881
▁ikorwa	-5882
shyuza	-5883
▁gushinga	-5884
▁kutagira	-5885
garagarije	-5886
▁bwagaragaje	-5887
mogi	-5888
igikombe	-5889
▁bikunze	-5890
hé	-5891
UKA	-5892
isoko	-5893
▁zuba	-5894
▁mwuga	-5895
▁bukene	-5896
▁Richard	-5897
▁Green	-5898
▁muziki	-5899
hohotera	-5900
▁zishinzwe	-5901
▁Nyamirambo	-5902
▁yaga	-5903
▁yahuye	-5904
kweto	-5905
rekejwe	-5906
▁CH	-5907
buja	-5908
nald	-5909
▁Ser	-5910
▁Biden	-5911
hamagara	-5912
▁musaruro	-5913
▁Ex	-5914
ques	-5915
▁gutandukana	-5916
▁Wo	-5917
mbiye	-5918
piteni	-5919
▁banyu	-5920
▁bitangazwa	-5921
▁Nyaka	-5922
hanganira	-5923
▁wita	-5924
▁yanze	-5925
▁bireba	-5926
muryango	-5927
▁ziterwa	-5928
▁kabo	-5929
▁bagiranye	-5930
liam	-5931
▁Franci	-5932
▁ibyumba	-5933
▁abahungu	-5934
▁imirwano	-5935
mwaka	-5936
▁kumvi	-5937
rohereza	-5938
shyikirwa	-5939
▁ishingiro	-5940
▁ay	-5941
rand	-5942
▁haki	-5943
▁Tra	-5944
▁Group	-5945
tandukani	-5946
ration	-5947
▁manota	-5948
▁Eva	-5949
kiriya	-5950
yoboka	-5951
zamara	-5952
▁yigisha	-5953
hagaritse	-5954
▁bukangurambaga	-5955
AG	-5956
raro	-5957
▁Nzi	-5958
▁David	-5959
▁iheruka	-5960
ema	-5961
mbaro	-5962
].	-5963
rankunga	-5964
▁ikomeza	-5965
▁Nkurunziza	-5966
▁Pas	-5967
banzi	-5968
Abantu	-5969
amashyamba	-5970
ves	-5971
▁ukundi	-5972
▁Musenyeri	-5973
▁kwihutisha	-5974
kinwa	-5975
ringira	-5976
!"	-5977
▁yacyo	-5978
phonse	-5979
▁yinjira	-5980
▁intera	-5981
Kuva	-5982
hiye	-5983
zigami	-5984
▁abashinzwe	-5985
▁imiyoborere	-5986
tyoza	-5987
▁mugezi	-5988
imiyoborere	-5989
gwingira	-5990
▁kwiyubaka	-5991
zanira	-5992
▁tuzaba	-5993
amahirwe	-5994
▁abagaragu	-5995
▁idasanzwe	-5996
▁icyubahiro	-5997
nt	-5998
Nti	-5999
▁World	-6000
▁ishaka	-6001
umugoroba	-6002
▁abakiriya	-6003
sing	-6004
umuhanzi	-6005
▁yakoreye	-6006
▁gukangurira	-6007
RI	-6008
ler	-6009
jyewe	-6010
▁Saint	-6011
▁binji	-6012
▁zigomba	-6013
ling	-6014
hungiro	-6015
▁Kano	-6016
mburwa	-6017
tishoboye	-6018
▁kuvugana	-6019
▁umunyamabanga	-6020
Ga	-6021
Ro	-6022
▁Turere	-6023
▁usibye	-6024
▁ayobora	-6025
shyiriweho	-6026
▁Aki	-6027
▁Maj	-6028
banji	-6029
▁York	-6030
▁guho	-6031
Ibihugu	-6032
▁Uburyo	-6033
▁yashize	-6034
▁Yongeraho	-6035
▁Ndayishimiye	-6036
ganire	-6037
▁Instagram	-6038
tha	-6039
▁SEBA	-6040
▁imvu	-6041
itumanaho	-6042
erry	-6043
▁Mac	-6044
tumvi	-6045
ingingo	-6046
uturere	-6047
▁kigali	-6048
▁maguru	-6049
▁rutahizamu	-6050
chie	-6051
▁Ari	-6052
▁kwinjiza	-6053
▁basirikare	-6054
▁mafoto	-6055
▁nyanja	-6056
ibiganiro	-6057
▁byerekana	-6058
▁Iterambere	-6059
yuzemo	-6060
▁Ikibazo	-6061
▁Kwibuka	-6062
▁Uwimana	-6063
▁amahanga	-6064
foro	-6065
yange	-6066
▁wiga	-6067
viramo	-6068
▁ibyuma	-6069
▁Olempike	-6070
▁kwangiza	-6071
GB	-6072
▁Camero	-6073
umubyeyi	-6074
▁basabwe	-6075
▁Muha	-6076
▁zijyanye	-6077
▁ntiha	-6078
▁Burugumesitiri	-6079
hutirwa	-6080
cademy	-6081
jeriya	-6082
sigiti	-6083
▁kubohora	-6084
▁gusiganwa	-6085
op	-6086
gozi	-6087
kunzwe	-6088
oneste	-6089
▁namwe	-6090
▁babaye	-6091
pfura	-6092
byumva	-6093
▁idini	-6094
ME	-6095
ika	-6096
ley	-6097
▁Meya	-6098
ubwoko	-6099
▁njya	-6100
▁bunyu	-6101
▁yiyemeje	-6102
▁ibigori	-6103
▁Miliyari	-6104
▁cyabereye	-6105
▁umunyarwanda	-6106
▁Mou	-6107
uruhu	-6108
▁Melo	-6109
▁nacyo	-6110
kongera	-6111
▁Diamond	-6112
▁William	-6113
▁bakagira	-6114
▁amoko	-6115
▁yiswe	-6116
▁ukwiye	-6117
▁mwarimu	-6118
▁hakenewe	-6119
▁kitarenze	-6120
bora	-6121
▁Bur	-6122
▁Pre	-6123
singa	-6124
▁abasaba	-6125
▁ibikombe	-6126
KI	-6127
vuge	-6128
today	-6129
▁yaru	-6130
▁imico	-6131
▁ryabo	-6132
tangirwa	-6133
bibi	-6134
imiti	-6135
▁Tuni	-6136
▁mabi	-6137
▁muka	-6138
▁ikosa	-6139
▁shingiro	-6140
▁RP	-6141
herezo	-6142
▁yumvi	-6143
▁baganiriye	-6144
▁kumenyekana	-6145
▁Rwe	-6146
▁Uwitwa	-6147
▁iharanira	-6148
▁v	-6149
▁is	-6150
▁iriya	-6151
iminota	-6152
▁giherere	-6153
▁abitabiriye	-6154
▁Mon	-6155
satsi	-6156
ntumwa	-6157
▁yama	-6158
▁yitwaje	-6159
▁kugeraho	-6160
▁SP	-6161
babaro	-6162
garafu	-6163
▁yateye	-6164
?.	-6165
KT	-6166
byu	-6167
▁guka	-6168
▁sinema	-6169
▁amahame	-6170
kecuru	-6171
ranzwe	-6172
ong	-6173
▁Dan	-6174
▁nyir	-6175
koloni	-6176
▁Cup	-6177
▁reka	-6178
▁imizi	-6179
garitse	-6180
▁twumva	-6181
▁abasore	-6182
▁umurenge	-6183
sohora	-6184
torewe	-6185
▁guhora	-6186
▁imbuga	-6187
▁paragarafu	-6188
▁bawe	-6189
▁Abanyamakuru	-6190
SAZA	-6191
rance	-6192
▁urwa	-6193
▁cyayo	-6194
▁bagamije	-6195
▁yateguwe	-6196
▁Ea	-6197
port	-6198
▁ruga	-6199
▁cyaro	-6200
▁Genera	-6201
ganiriza	-6202
▁Itsinda	-6203
▁ubushyuhe	-6204
jimana	-6205
▁kwegera	-6206
bri	-6207
baho	-6208
▁ndu	-6209
▁bigi	-6210
▁yare	-6211
teguro	-6212
▁akaya	-6213
▁babasha	-6214
▁ikinyamakuru	-6215
▁ij	-6216
tines	-6217
ibigori	-6218
▁buvuzi	-6219
▁musana	-6220
▁imikoranire	-6221
baka	-6222
▁Chan	-6223
intara	-6224
inzira	-6225
▁abarenga	-6226
▁musanatines	-6227
ms	-6228
▁Loni	-6229
▁Ngabo	-6230
vugwaho	-6231
ramutse	-6232
▁Habineza	-6233
▁bidukikije	-6234
▁bitera	-6235
▁ukinira	-6236
SP	-6237
riraho	-6238
▁Patrio	-6239
▁Umushinga	-6240
biko	-6241
boka	-6242
▁Real	-6243
ragera	-6244
▁mbese	-6245
▁ashimira	-6246
▁gutsindwa	-6247
moso	-6248
tifu	-6249
▁For	-6250
genera	-6251
▁babanje	-6252
▁itangwa	-6253
▁byerekeye	-6254
himana	-6255
kubise	-6256
wavutse	-6257
abahinzi	-6258
▁bagakora	-6259
ahantu	-6260
mereye	-6261
▁korana	-6262
▁twebwe	-6263
▁butemewe	-6264
-“	-6265
bika	-6266
ishwa	-6267
rasire	-6268
▁kamwe	-6269
▁umuceri	-6270
pfuka	-6271
▁Damas	-6272
▁ashingiye	-6273
▁pi	-6274
rurwa	-6275
mubiri	-6276
▁wakoze	-6277
▁baturuka	-6278
anduku	-6279
fatirwa	-6280
ihazabu	-6281
myabiri	-6282
▁biribwa	-6283
▁SEBASAZA	-6284
▁ruda	-6285
garutseho	-6286
Abaminisitiri	-6287
▁IM	-6288
roni	-6289
▁USA	-6290
Umwami	-6291
kurire	-6292
▁$	-6293
geso	-6294
▁uriya	-6295
Uburayi	-6296
▁Isa	-6297
▁FERWAFA	-6298
▁bwaba	-6299
▁ukugira	-6300
▁gukuraho	-6301
▁yasohotse	-6302
▁ruha	-6303
▁Bruce	-6304
▁ruhare	-6305
anditswe	-6306
▁sitasiyo	-6307
▁imyambaro	-6308
▁yashakaga	-6309
▁University	-6310
YAM	-6311
▁amasa	-6312
inyungu	-6313
▁kurwana	-6314
shyikirano	-6315
▁Ic	-6316
voma	-6317
▁Glo	-6318
osiye	-6319
▁ryayo	-6320
▁minisitiri	-6321
▁mukerarugendo	-6322
:”	-6323
ree	-6324
geria	-6325
▁Bank	-6326
▁ruhu	-6327
raniye	-6328
mman	-6329
umwuga	-6330
▁mahoro	-6331
tangazwa	-6332
▁abahanga	-6333
▁gakomeye	-6334
▁yatsindiye	-6335
Abo	-6336
Simon	-6337
▁uruzi	-6338
VA	-6339
udu	-6340
mbwira	-6341
byemera	-6342
▁akomeje	-6343
▁iteganyijwe	-6344
Twi	-6345
▁Twe	-6346
amase	-6347
sifuzi	-6348
▁Depite	-6349
▁birenga	-6350
▁igihombo	-6351
▁karindwi	-6352
▁makumyabiri	-6353
▁Sami	-6354
▁wifuza	-6355
▁atigeze	-6356
▁gushimira	-6357
henze	-6358
rindi	-6359
▁niko	-6360
injiye	-6361
▁banga	-6362
▁icyuho	-6363
▁abakoresha	-6364
sirikari	-6365
▁Rukiko	-6366
▁bakayi	-6367
▁yavukiye	-6368
▁Ghana	-6369
SimonKa	-6370
▁Franço	-6371
▁impaka	-6372
SimonKamuzinzi	-6373
ryi	-6374
velo	-6375
hembe	-6376
▁byaje	-6377
▁ifata	-6378
▁berekeza	-6379
▁cyubahiro	-6380
▁kwishimira	-6381
Zab	-6382
▁ngi	-6383
imitwe	-6384
▁icyari	-6385
amagambo	-6386
▁umwenda	-6387
▁demokarasi	-6388
UC	-6389
cike	-6390
GEmman	-6391
▁gaciro	-6392
▁SEBASAZAGEmman	-6393
yandikisha	-6394
mpala	-6395
senye	-6396
▁zivuga	-6397
yisilamu	-6398
▁Academy	-6399
▁Robert	-6400
▁Mirenge	-6401
▁umushahara	-6402
▁koranabuhanga	-6403
HA	-6404
bindi	-6405
lbert	-6406
▁rita	-6407
rea	-6408
▁Mwi	-6409
▁ukunda	-6410
urubanza	-6411
▁ayoboye	-6412
▁At	-6413
ndiro	-6414
▁Yasabye	-6415
bal	-6416
sogi	-6417
▁icy	-6418
kiliya	-6419
▁gusanga	-6420
▁yatangira	-6421
▁School	-6422
Ubucuruzi	-6423
▁Nyabarongo	-6424
ET	-6425
▁Kizi	-6426
ubuta	-6427
gatifu	-6428
ptiste	-6429
▁ibitaramo	-6430
baha	-6431
mukiye	-6432
▁bapfa	-6433
ikirenga	-6434
▁Cyangugu	-6435
Icya	-6436
stan	-6437
▁bajyaga	-6438
▁itangira	-6439
rangamutima	-6440
▁giherereye	-6441
▁bisi	-6442
▁kureka	-6443
ls	-6444
▁ibivugwa	-6445
rti	-6446
kaye	-6447
▁Kari	-6448
▁Njyanama	-6449
▁barindwi	-6450
DI	-6451
▁ibe	-6452
▁Ababyeyi	-6453
kobo	-6454
▁Mbo	-6455
▁pariki	-6456
▁yahisemo	-6457
▁nyafurika	-6458
NR	-6459
lon	-6460
▁iwacu	-6461
▁ikizere	-6462
▁kurangira	-6463
▁bugaragaza	-6464
geraga	-6465
▁bwihuse	-6466
sobanukiwe	-6467
lm	-6468
▁Mwe	-6469
amaso	-6470
kiniye	-6471
▁Franco	-6472
▁bazize	-6473
▁gukira	-6474
mpo	-6475
towe	-6476
ganura	-6477
impunzi	-6478
val	-6479
cide	-6480
poir	-6481
munsi	-6482
▁muma	-6483
bohora	-6484
▁bafatanyije	-6485
▁Bavuga	-6486
▁intyoza	-6487
▁mutungo	-6488
▁MTN	-6489
gendana	-6490
Ubwongereza	-6491
yiko	-6492
▁Ntu	-6493
tirwa	-6494
▁kuro	-6495
batswe	-6496
▁aregwa	-6497
▁wavuze	-6498
him	-6499
twaza	-6500
▁mama	-6501
▁ababo	-6502
hamu	-6503
roka	-6504
▁Gera	-6505
subiye	-6506
▁Coronavirus	-6507
cece	-6508
anduza	-6509
Amahoro	-6510
abatuye	-6511
Urubyiruko	-6512
mbuwe	-6513
umutoza	-6514
▁hariho	-6515
▁pu	-6516
▁Ndo	-6517
▁yiba	-6518
▁ikwiye	-6519
gendanwa	-6520
Kwi	-6521
hitana	-6522
sivili	-6523
▁isuzuma	-6524
miwe	-6525
Umuco	-6526
▁gutangwa	-6527
▁AC	-6528
rans	-6529
tandaro	-6530
▁Senateri	-6531
▁kwifatanya	-6532
ces	-6533
▁Munya	-6534
▁bakabona	-6535
▁rirambye	-6536
▁amatsinda	-6537
▁umucamanza	-6538
NC	-6539
dyo	-6540
rerane	-6541
turere	-6542
▁aturuka	-6543
▁haruguru	-6544
▁zisanzwe	-6545
▁ibyumweru	-6546
▁kongerera	-6547
shyikirijwe	-6548
nis	-6549
▁Sport	-6550
suzumwa	-6551
▁Mugabo	-6552
▁burenganzira	-6553
hanitse	-6554
▁kuzuza	-6555
▁mahirwe	-6556
▁gusohoka	-6557
sto	-6558
yuda	-6559
▁kubaza	-6560
▁kwihangana	-6561
Ju	-6562
UZ	-6563
reru	-6564
▁zina	-6565
gerero	-6566
gurishwa	-6567
raho	-6568
teur	-6569
ubwa	-6570
bantu	-6571
shoro	-6572
▁babe	-6573
▁Nyungwe	-6574
▁dushaka	-6575
▁ijyanye	-6576
▁ubukana	-6577
mbuzi	-6578
sirwa	-6579
▁ajye	-6580
▁rida	-6581
▁bizwi	-6582
▁ikiri	-6583
▁mvugo	-6584
▁Umukino	-6585
▁ishusho	-6586
terankunga	-6587
▁mashyamba	-6588
gizemo	-6589
▁hariya	-6590
▁Francis	-6591
ishoramari	-6592
▁Champions	-6593
▁indahemuka	-6594
▁Putin	-6595
▁yabyo	-6596
dukunda	-6597
▁Awards	-6598
▁irenge	-6599
▁Kanombe	-6600
▁bungana	-6601
▁kompanyi	-6602
▁isabukuru	-6603
Je	-6604
▁AF	-6605
▁she	-6606
▁Muta	-6607
▁ijya	-6608
▁ameze	-6609
▁bitabo	-6610
inyamaswa	-6611
);	-6612
amado	-6613
▁Ruto	-6614
▁muti	-6615
▁abakuru	-6616
▁myugariro	-6617
hane	-6618
▁tuti	-6619
▁yica	-6620
hangani	-6621
DR	-6622
gijimana	-6623
▁kwibaza	-6624
mbutse	-6625
uruganda	-6626
Ubutabera	-6627
▁petero	-6628
▁haje	-6629
▁stade	-6630
▁mirima	-6631
▁Amafoto	-6632
serv	-6633
▁mashusho	-6634
▁abimukira	-6635
▁Abu	-6636
▁uwi	-6637
▁inga	-6638
▁uhuza	-6639
▁rigenga	-6640
▁bakoraga	-6641
ino	-6642
stre	-6643
▁Flo	-6644
▁Anto	-6645
cation	-6646
garije	-6647
▁George	-6648
▁gufunga	-6649
kumi	-6650
shen	-6651
yiserv	-6652
remereye	-6653
▁Buyapani	-6654
▁abigishwa	-6655
▁bikurikira	-6656
▁mutuyiserv	-6657
nywe	-6658
mbanya	-6659
▁ihuza	-6660
▁Umutoza	-6661
▁kubyaza	-6662
BBC	-6663
▁KU	-6664
ingufu	-6665
▁inteko	-6666
▁batekereza	-6667
▁sebuharara	-6668
▁henshi	-6669
▁icyicaro	-6670
ner	-6671
fone	-6672
▁Gaza	-6673
yiringiro	-6674
garagarira	-6675
▁ADE	-6676
▁con	-6677
Ubugenzacyaha	-6678
gwiro	-6679
▁Kevin	-6680
▁ubwiza	-6681
twererane	-6682
▁yamenyekanye	-6683
umve	-6684
▁Lon	-6685
▁buso	-6686
▁bukuru	-6687
▁kiriya	-6688
▁wigeze	-6689
▁mbogamizi	-6690
▁amafunguro	-6691
amaze	-6692
wanga	-6693
kuriye	-6694
rokoka	-6695
▁Nyiri	-6696
▁biciwe	-6697
▁ijisho	-6698
▁mikuru	-6699
Abahamya	-6700
▁kurwara	-6701
▁yajyaga	-6702
▁igenzura	-6703
▁ngororamu	-6704
cer	-6705
rume	-6706
▁Imp	-6707
nguka	-6708
▁ujye	-6709
hindagurika	-6710
▁King	-6711
furiza	-6712
kishijwe	-6713
▁Nu	-6714
murwa	-6715
tumiza	-6716
▁manza	-6717
▁kujyana	-6718
▁zigamije	-6719
mbukiranya	-6720
mpaye	-6721
▁Nsan	-6722
rwanaho	-6723
▁twabonye	-6724
▁yafatiwe	-6725
▁urwibutso	-6726
umukuru	-6727
Ubushinjacyaha	-6728
▁indangagaciro	-6729
baje	-6730
mala	-6731
▁RAB	-6732
▁ikana	-6733
igisirikare	-6734
eph	-6735
▁Ag	-6736
wuzu	-6737
▁Daniel	-6738
humuriza	-6739
▁umurwayi	-6740
beraga	-6741
▁Martin	-6742
▁Babi	-6743
vuyemo	-6744
▁Inkuru	-6745
▁Abahutu	-6746
▁gukusanya	-6747
subu	-6748
gendaga	-6749
▁ruvuga	-6750
sobanutse	-6751
Ubufaransa	-6752
?"	-6753
mer	-6754
mene	-6755
▁Kor	-6756
hinze	-6757
boneke	-6758
gifite	-6759
shimire	-6760
▁rishya	-6761
▁ashyira	-6762
▁Centre	-6763
▁yasuye	-6764
▁Kampala	-6765
IMANA	-6766
Ubuhinzi	-6767
▁Ibihugu	-6768
▁Baptiste	-6769
▁abashoramari	-6770
RIB	-6771
▁giciro	-6772
▁ubworozi	-6773
▁umuvugizi	-6774
▁bakazi	-6775
▁aborozi	-6776
▁inkomoko	-6777
▁kwandura	-6778
▁kuku	-6779
korwaga	-6780
▁wambaye	-6781
▁irengero	-6782
jan	-6783
nika	-6784
▁dute	-6785
▁yepfo	-6786
▁kwifashisha	-6787
▁Joye	-6788
▁banya	-6789
▁gukuramo	-6790
hererekanya	-6791
▁Thé	-6792
▁akoze	-6793
▁yatawe	-6794
▁Usibye	-6795
Me	-6796
kabaye	-6797
▁igare	-6798
▁mubare	-6799
▁Abagore	-6800
▁icyerekezo	-6801
▁Nsengiyumva	-6802
iburasirazuba	-6803
▁Day	-6804
batse	-6805
babazi	-6806
foromo	-6807
▁akayi	-6808
shyinguye	-6809
▁ahanishwa	-6810
LI	-6811
it	-6812
cien	-6813
▁Tho	-6814
▁amado	-6815
▁rikuru	-6816
▁bworoshye	-6817
Uwi	-6818
rwenya	-6819
▁ibara	-6820
ari	-6821
pen	-6822
▁Bro	-6823
misiyo	-6824
▁yabuze	-6825
▁Arongera	-6826
▁bashyira	-6827
masi	-6828
tunzi	-6829
▁Joyeuse	-6830
▁cyatumye	-6831
▁gukurikiza	-6832
▁Nko	-6833
konje	-6834
▁nimero	-6835
▁ririmo	-6836
▁kurenga	-6837
▁Abakinnyi	-6838
▁nyine	-6839
ED	-6840
gabi	-6841
byino	-6842
shaho	-6843
vugana	-6844
ibirayi	-6845
kundana	-6846
▁bitaba	-6847
▁SA	-6848
mezo	-6849
mutse	-6850
▁ruzi	-6851
gamiye	-6852
’’	-6853
jora	-6854
▁Mara	-6855
▁ikubi	-6856
▁bitara	-6857
menyereza	-6858
▁Nsengimana	-6859
▁bitekerezo	-6860
▁materaniro	-6861
▁Amaze	-6862
▁babya	-6863
▁gafite	-6864
▁dusanga	-6865
▁Habimana	-6866
▁mpinduka	-6867
▁Urwibutso	-6868
tta	-6869
▁Ruda	-6870
▁biyi	-6871
zindana	-6872
hagararira	-6873
uro	-6874
▁Bwi	-6875
wanye	-6876
▁ntizi	-6877
funguwe	-6878
▁UR	-6879
Niba	-6880
ebyiri	-6881
makuru	-6882
ngutse	-6883
▁bwato	-6884
▁kitwa	-6885
umuziki	-6886
▁kigeze	-6887
Yakomeje	-6888
▁kuboneza	-6889
▁yemerewe	-6890
▁yibukije	-6891
deli	-6892
▁Mpa	-6893
fungiwe	-6894
▁akagira	-6895
▁bategereje	-6896
ishyirahamwe	-6897
mvugo	-6898
▁ihame	-6899
▁Antoine	-6900
▁Patriots	-6901
▁iteganya	-6902
tuza	-6903
girente	-6904
menyerewe	-6905
abaturanyi	-6906
▁ashimangira	-6907
▁amakoperative	-6908
▁bashyize	-6909
▁hasigaye	-6910
▁ivangura	-6911
▁Phili	-6912
nganizi	-6913
inzobere	-6914
▁uturere	-6915
▁ibipimo	-6916
▁Abayahudi	-6917
▁Theoneste	-6918
▁Ndagijimana	-6919
yanye	-6920
randasi	-6921
▁Itorero	-6922
▁As	-6923
▁kuburani	-6924
▁yagi	-6925
▁Minis	-6926
▁barya	-6927
▁byana	-6928
▁ubuso	-6929
impamvu	-6930
sobanurwa	-6931
rabura	-6932
▁icyayi	-6933
lli	-6934
zero	-6935
▁imfa	-6936
Abahutu	-6937
rukanwa	-6938
shijeho	-6939
▁yakira	-6940
▁bambaye	-6941
▁cyahoze	-6942
dge	-6943
ganzo	-6944
gutse	-6945
Kigali	-6946
douard	-6947
▁zahabu	-6948
len	-6949
urwo	-6950
lisiti	-6951
▁asabwa	-6952
▁gucika	-6953
ristophe	-6954
▁Uburenganzira	-6955
beshye	-6956
▁siyansi	-6957
▁bemerewe	-6958
▁Nyamata	-6959
▁birinda	-6960
▁Syl	-6961
pagne	-6962
▁twavuga	-6963
iba	-6964
▁Mp	-6965
ille	-6966
▁Mani	-6967
▁Nimu	-6968
rekezi	-6969
▁itabi	-6970
amakuru	-6971
uburinganire	-6972
▁mva	-6973
▁kugo	-6974
▁Berna	-6975
▁ngiro	-6976
▁Gasogi	-6977
▁batera	-6978
▁biteye	-6979
hererekane	-6980
▁biganjemo	-6981
▁Aziya	-6982
▁yajya	-6983
▁murieph	-6984
▁urumuri	-6985
ubutabazi	-6986
▁iruhande	-6987
▁yagiriye	-6988
▁ikizamini	-6989
kuruza	-6990
▁isaga	-6991
abakuru	-6992
byiniro	-6993
ngereye	-6994
▁Ubundi	-6995
cururiza	-6996
▁bafasha	-6997
▁François	-6998
mve	-6999
tezweho	-7000
▁rigena	-7001
atar	-7002
sisi	-7003
kamaro	-7004
▁bakan	-7005
imirire	-7006
▁Itangazo	-7007
▁icyakora	-7008
▁gusigasira	-7009
ERE	-7010
▁kurangwa	-7011
▁kuzirikana	-7012
con	-7013
lam	-7014
bwiwe	-7015
rebera	-7016
▁siganwa	-7017
▁(@	-7018
ssan	-7019
rince	-7020
▁Reba	-7021
▁binyu	-7022
▁tujya	-7023
shirize	-7024
geragezo	-7025
imbaraga	-7026
▁Thierry	-7027
▁Ngirente	-7028
▁bakekwaho	-7029
▁bazakomeza	-7030
yini	-7031
▁Egi	-7032
icyayi	-7033
rerezi	-7034
▁Diane	-7035
▁bwara	-7036
▁bahinzi	-7037
▁urusobe	-7038
▁bugamije	-7039
WAN	-7040
huha	-7041
▁Kama	-7042
▁Kare	-7043
▁igiti	-7044
▁isoni	-7045
saku	-7046
manye	-7047
▁nkeya	-7048
▁gutakaza	-7049
bungabunga	-7050
▁rusengero	-7051
....	-7052
vanze	-7053
▁Malawi	-7054
▁gushakira	-7055
abanyamuryango	-7056
koroni	-7057
mugayo	-7058
▁ngengo	-7059
▁bidasanzwe	-7060
▁yishe	-7061
amasaha	-7062
▁gutunga	-7063
Interahamwe	-7064
▁gusambanya	-7065
Ndi	-7066
cco	-7067
▁Mari	-7068
▁Umwa	-7069
▁basu	-7070
▁amafi	-7071
▁Espoir	-7072
▁bigisha	-7073
▁iserukiramuco	-7074
▁Gacaca	-7075
uburwayi	-7076
▁kingana	-7077
ubwubatsi	-7078
umuturage	-7079
fashijwemo	-7080
haguru	-7081
hutira	-7082
inzara	-7083
▁wahawe	-7084
▁bahagarariye	-7085
▁abanyamahanga	-7086
▁RBC	-7087
▁impe	-7088
▁ADEPR	-7089
▁abone	-7090
▁ataza	-7091
▁burya	-7092
marayika	-7093
▁bitwaye	-7094
▁nyamaswa	-7095
▁bwihariye	-7096
ot	-7097
▁IS	-7098
▁ito	-7099
Umutwe	-7100
rurira	-7101
▁gukinira	-7102
▁hatandukanye	-7103
Te	-7104
mpu	-7105
rinde	-7106
▁Yakobo	-7107
koreshaga	-7108
turarwanda	-7109
▁Impu	-7110
▁nabonye	-7111
▁yatsinzwe	-7112
▁kumuha	-7113
▁impuhwe	-7114
▁ugamije	-7115
hungabanya	-7116
AT	-7117
UREM	-7118
roma	-7119
senyu	-7120
▁Ruguru	-7121
▁hoteli	-7122
koraniro	-7123
▁Faustin	-7124
▁Nyafurika	-7125
kijwe	-7126
▁buhe	-7127
murage	-7128
amanywa	-7129
▁intoki	-7130
UG	-7131
rondoro	-7132
▁basore	-7133
▁umwanda	-7134
▁kwihangira	-7135
▁gukurikiranwa	-7136
rc	-7137
▁Hamas	-7138
▁nzaba	-7139
▁ryitwa	-7140
▁myitozo	-7141
▁yonyine	-7142
rengagiza	-7143
▁urukingo	-7144
▁Christophe	-7145
▁Lau	-7146
▁kawa	-7147
tinyuka	-7148
genderwaho	-7149
Bya	-7150
▁tuna	-7151
▁abanye	-7152
twigisha	-7153
▁adashobora	-7154
▁impa	-7155
imiterere	-7156
▁Va	-7157
ababa	-7158
▁tuyi	-7159
▁bikana	-7160
hangarwa	-7161
▁ukabije	-7162
kwirakwira	-7163
▁barokotse	-7164
baro	-7165
dewo	-7166
fitemo	-7167
kazana	-7168
▁arwaye	-7169
▁Munyaneza	-7170
ZE	-7171
goma	-7172
▁iko	-7173
▁Mose	-7174
▁amwi	-7175
▁yere	-7176
rikira	-7177
▁ubuntu	-7178
▁bavandimwe	-7179
▁Shi	-7180
Nubwo	-7181
rweho	-7182
▁Kini	-7183
yororo	-7184
▁ubanza	-7185
kuko	-7186
Umunya	-7187
▁ugera	-7188
▁kuvugwa	-7189
▁ikubitiro	-7190
▁ibihangano	-7191
▁amacakubiri	-7192
bane	-7193
tswa	-7194
▁Imbu	-7195
amajwi	-7196
fatizo	-7197
vugira	-7198
▁rupfu	-7199
urugendo	-7200
▁barwaye	-7201
▁ibirego	-7202
▁igipimo	-7203
▁kwerekeza	-7204
OR	-7205
lé	-7206
giri	-7207
guro	-7208
▁Bel	-7209
▁Nyina	-7210
hitanye	-7211
sangiye	-7212
▁inkiko	-7213
zigamira	-7214
ubwicanyi	-7215
▁amubwira	-7216
▁kubakira	-7217
▁isuri	-7218
▁dukeneye	-7219
:"	-7220
ght	-7221
▁nkora	-7222
tingito	-7223
▁Melodie	-7224
▁bikenewe	-7225
kindi	-7226
▁utwo	-7227
kennye	-7228
▁majwi	-7229
▁ibyiciro	-7230
huzabikorwa	-7231
▁bagerageza	-7232
logi	-7233
subije	-7234
▁baraba	-7235
▁gishya	-7236
▁ubwishingizi	-7237
▁Air	-7238
▁Chri	-7239
gendewe	-7240
Ubworozi	-7241
▁amaseti	-7242
▁barushaho	-7243
Se	-7244
▁biva	-7245
▁ibaye	-7246
▁indimi	-7247
hanishwa	-7248
▁bahisemo	-7249
nie	-7250
tire	-7251
▁General	-7252
▁Nyabu	-7253
▁yaramu	-7254
▁abasaza	-7255
kurikizwa	-7256
▁akoreshwa	-7257
td	-7258
Ivo	-7259
▁ugeze	-7260
▁imigabane	-7261
yangamugayo	-7262
dine	-7263
gizwa	-7264
▁Data	-7265
▁Star	-7266
▁kara	-7267
kabije	-7268
▁riteganya	-7269
▁cyatangiye	-7270
mic	-7271
▁FI	-7272
geye	-7273
▁mala	-7274
vugaho	-7275
▁bareba	-7276
yororokere	-7277
sea	-7278
juri	-7279
▁buntu	-7280
ururimi	-7281
Jean	-7282
giraneza	-7283
▁Christi	-7284
yamamariza	-7285
▁rwacu	-7286
▁murandasi	-7287
▁cyatangaje	-7288
Rahe	-7289
bazwa	-7290
bungo	-7291
▁bakin	-7292
yumbati	-7293
▁bataza	-7294
▁bemera	-7295
▁bavugaga	-7296
▁umuganga	-7297
▁zikoreshwa	-7298
▁kumenyekanisha	-7299
▁nin	-7300
▁yarimo	-7301
din	-7302
lonel	-7303
▁bica	-7304
▁intara	-7305
▁bonyine	-7306
▁gukomera	-7307
amasegonda	-7308
▁hashobora	-7309
▁abategetsi	-7310
▁iva	-7311
▁Biro	-7312
▁yazo	-7313
nganya	-7314
▁igize	-7315
ubushyuhe	-7316
▁En	-7317
munara	-7318
▁butuma	-7319
▁minota	-7320
tunganywa	-7321
▁St	-7322
▁lv	-7323
kumira	-7324
▁Inzego	-7325
▁yasohoye	-7326
▁kumufasha	-7327
mpany	-7328
▁tugeze	-7329
tunganye	-7330
▁kutabona	-7331
▁yatangije	-7332
ibiyobyabwenge	-7333
Raheema	-7334
girakamaro	-7335
▁lvRaheema	-7336
senya	-7337
yuzure	-7338
▁yaryo	-7339
▁gituma	-7340
▁inzozi	-7341
▁urumva	-7342
Sa	-7343
▁ta	-7344
▁miti	-7345
tsemba	-7346
▁gusana	-7347
▁et	-7348
robyi	-7349
tumba	-7350
▁mato	-7351
▁uhagije	-7352
▁umukandida	-7353
rty	-7354
▁Turu	-7355
▁kugana	-7356
tsindira	-7357
▁ubwandu	-7358
▁zitanga	-7359
sigaranye	-7360
▁kaburimbo	-7361
andwa	-7362
onjora	-7363
▁bitero	-7364
menyekane	-7365
ries	-7366
▁Ken	-7367
stitu	-7368
▁Kuko	-7369
▁karu	-7370
sitora	-7371
tabaza	-7372
▁bazwi	-7373
▁kuguma	-7374
suzugura	-7375
▁Kayumba	-7376
▁bariyeri	-7377
Abisiraheli	-7378
velop	-7379
hirizwa	-7380
▁burengerazuba	-7381
éné	-7382
▁uva	-7383
▁Peter	-7384
▁barebe	-7385
▁radiyo	-7386
imyidagaduro	-7387
▁kigalitoday	-7388
gure	-7389
▁Hou	-7390
kekwa	-7391
bereka	-7392
riyemo	-7393
YAMUREM	-7394
▁zizaba	-7395
▁Uburusiya	-7396
▁rwu	-7397
▁yaza	-7398
bangavu	-7399
▁tangazo	-7400
YAMUREMYE	-7401
hwi	-7402
huru	-7403
▁Mama	-7404
▁muta	-7405
▁Rwand	-7406
▁kwizera	-7407
▁uyoboye	-7408
inyongera	-7409
heza	-7410
tema	-7411
ville	-7412
▁twose	-7413
▁gusimbu	-7414
▁Mutabazi	-7415
▁yongeraho	-7416
ARI	-7417
med	-7418
canga	-7419
vanye	-7420
▁Erne	-7421
▁Qatar	-7422
▁Intego	-7423
Abafaransa	-7424
▁wasangaga	-7425
sansi	-7426
rohera	-7427
yosezi	-7428
▁batabi	-7429
▁Abagize	-7430
▁umuhinzi	-7431
▁IYAMUREMYE	-7432
Mbere	-7433
hamed	-7434
mburo	-7435
riste	-7436
▁bameze	-7437
boneyeho	-7438
▁asigaye	-7439
▁umusoro	-7440
▁byihariye	-7441
▁yizeye	-7442
▁Abakozi	-7443
▁Hitimana	-7444
guza	-7445
jyamo	-7446
karita	-7447
▁zitwara	-7448
▁batishoboye	-7449
abafana	-7450
jugunya	-7451
▁Kabera	-7452
▁guhugura	-7453
▁mutekano	-7454
▁peteroli	-7455
gereranywa	-7456
▁GS	-7457
rent	-7458
▁nshaka	-7459
ubuhanzi	-7460
▁nyakuri	-7461
▁yumvise	-7462
▁yabonaga	-7463
liki	-7464
▁wayi	-7465
umubare	-7466
▁gushize	-7467
▁imirima	-7468
▁Rama	-7469
geneye	-7470
▁ishyirahamwe	-7471
▁ngarukamwaka	-7472
He	-7473
▁baganira	-7474
▁byatanzwe	-7475
▁cyamunara	-7476
hema	-7477
shuka	-7478
vanwa	-7479
▁Juli	-7480
▁ugenda	-7481
abapolisi	-7482
▁ikoresha	-7483
▁gusangira	-7484
▁Amasezerano	-7485
piya	-7486
shuye	-7487
▁Bene	-7488
▁Fred	-7489
▁Rose	-7490
▁kunye	-7491
▁Yohana	-7492
▁Alphonse	-7493
inyeshyamba	-7494
osiyete	-7495
semburo	-7496
▁zagiye	-7497
▁Yagaragaje	-7498
UP	-7499
bero	-7500
wisi	-7501
▁FRW	-7502
▁akanya	-7503
▁urwango	-7504
banjirije	-7505
gabanutse	-7506
▁Butaliyani	-7507
▁CN	-7508
Afri	-7509
tondo	-7510
mbanyi	-7511
▁yahamaga	-7512
book	-7513
▁bama	-7514
▁rubi	-7515
▁Abura	-7516
▁Segiteri	-7517
▁haboneka	-7518
bola	-7519
lima	-7520
▁Dar	-7521
▁ihari	-7522
▁imbwa	-7523
▁abanzi	-7524
subiramo	-7525
▁Mushiki	-7526
▁ukabona	-7527
URI	-7528
Ubwi	-7529
limu	-7530
▁Cal	-7531
amafi	-7532
mejwe	-7533
▁mavu	-7534
▁iriho	-7535
▁Kwizera	-7536
▁ashinzwe	-7537
▁bashakanye	-7538
▁ubwenegihugu	-7539
▁on	-7540
vaga	-7541
▁ryu	-7542
yenzi	-7543
▁film	-7544
sohoza	-7545
▁Gereza	-7546
kingirizo	-7547
ubwishingizi	-7548
zy	-7549
pre	-7550
▁bihari	-7551
▁Twagira	-7552
▁gutabara	-7553
RND	-7554
▁Ubwi	-7555
suzume	-7556
▁ibibi	-7557
ikiyaga	-7558
▁Yaravuze	-7559
▁bahanganye	-7560
WI	-7561
enze	-7562
peti	-7563
kumbi	-7564
▁Yana	-7565
▁moko	-7566
▁mishya	-7567
Ibikorwa	-7568
mw	-7569
▁Oba	-7570
▁gupima	-7571
▁ingoma	-7572
▁duto	-7573
yakazi	-7574
▁ntiwa	-7575
▁bazira	-7576
▁ubwato	-7577
▁Edouard	-7578
▁uherutse	-7579
▁US	-7580
tuweli	-7581
▁Arusha	-7582
▁bufasha	-7583
Mi	-7584
▁kanwa	-7585
▁rwara	-7586
mufasha	-7587
▁intebe	-7588
▁aheruka	-7589
▁bingana	-7590
▁yakatiwe	-7591
▁yongeyeho	-7592
▁aramubwira	-7593
higa	-7594
shaga	-7595
▁Igice	-7596
▁yatangajwe	-7597
rye	-7598
▁Ala	-7599
▁rushobora	-7600
▁iburanisha	-7601
▁Ani	-7602
▁Iran	-7603
▁vita	-7604
kirana	-7605
▁atuma	-7606
▁yanga	-7607
▁bateye	-7608
▁ibirayi	-7609
▁ikibuga	-7610
banziriza	-7611
velopment	-7612
▁buhagije	-7613
▁Her	-7614
rilla	-7615
Njyewe	-7616
naliti	-7617
umuceri	-7618
▁Donald	-7619
▁kubika	-7620
amashusho	-7621
▁zitangwa	-7622
imyitwarire	-7623
Do	-7624
wera	-7625
▁ese	-7626
himba	-7627
▁ikawa	-7628
▁Amakipe	-7629
▁akabona	-7630
garagambya	-7631
▁birashoboka	-7632
rem	-7633
ure	-7634
saya	-7635
tezwa	-7636
▁Nshya	-7637
▁Hassan	-7638
▁imitima	-7639
▁Pasiteri	-7640
▁kijyanye	-7641
▁umusirikare	-7642
sion	-7643
▁amara	-7644
▁ahamya	-7645
▁sisite	-7646
▁Buholandi	-7647
imyororokere	-7648
rwanye	-7649
▁batewe	-7650
komokaho	-7651
▁Hashize	-7652
▁byavuzwe	-7653
▁yerekeye	-7654
del	-7655
imye	-7656
▁rishobora	-7657
ral	-7658
▁NA	-7659
Ivoire	-7660
▁bariya	-7661
▁biriya	-7662
▁gusubi	-7663
▁mazina	-7664
▁rimaze	-7665
▁Espagne	-7666
▁biranga	-7667
▁umucuruzi	-7668
nia	-7669
roheye	-7670
singizwe	-7671
▁abavuga	-7672
▁rigizwe	-7673
AFO	-7674
tia	-7675
zize	-7676
▁bikiri	-7677
▁ahagije	-7678
▁Christian	-7679
▁igisirikare	-7680
pha	-7681
kwan	-7682
Igihe	-7683
▁Kabi	-7684
▁Victo	-7685
▁Kibeho	-7686
▁incuti	-7687
▁Intumwa	-7688
▁akimara	-7689
▁bamenya	-7690
▁byibura	-7691
▁intanga	-7692
▁Umukobwa	-7693
▁politike	-7694
▁abatishoboye	-7695
cle	-7696
▁adafite	-7697
shimishijwe	-7698
▁hashyizweho	-7699
▁ubwisungane	-7700
▁uwu	-7701
▁bwuba	-7702
imisozi	-7703
▁Gisozi	-7704
▁bahuje	-7705
▁yahuje	-7706
▁nshinga	-7707
tangirira	-7708
▁yagejeje	-7709
hize	-7710
kusan	-7711
phone	-7712
suwisi	-7713
▁babuze	-7714
▁inkongi	-7715
yisumbuye	-7716
▁yayoboye	-7717
▁habonetse	-7718
tungamubiri	-7719
kubye	-7720
camunsi	-7721
▁Sahara	-7722
lande	-7723
▁Nkusi	-7724
▁munya	-7725
▁imboga	-7726
▁byihuse	-7727
▁izabera	-7728
▁ryakozwe	-7729
▁yabivuze	-7730
▁kugerwaho	-7731
▁guhungabanya	-7732
Uwo	-7733
▁Ze	-7734
hahi	-7735
shywe	-7736
▁banze	-7737
shushanya	-7738
jyane	-7739
yongeye	-7740
▁bahinga	-7741
▁Gisirikare	-7742
▁biteganywa	-7743
▁Vian	-7744
▁biteza	-7745
malachie	-7746
ububanyi	-7747
▁imihigo	-7748
▁kurenza	-7749
▁gusohora	-7750
Dr	-7751
tunze	-7752
▁Rwabu	-7753
umukara	-7754
uruhare	-7755
▁bitwaje	-7756
▁kuburana	-7757
▁rwatangiye	-7758
heba	-7759
▁Saa	-7760
▁muga	-7761
▁Abari	-7762
▁wagiye	-7763
▁mbaraga	-7764
▁ifunguro	-7765
▁+	-7766
▁kurera	-7767
▁umwete	-7768
▁yishimira	-7769
tizwa	-7770
▁ikaze	-7771
ndasiyo	-7772
piganwa	-7773
inshingano	-7774
ds	-7775
bile	-7776
▁RPF	-7777
cebook	-7778
▁kinya	-7779
▁kwiyi	-7780
ganyije	-7781
▁imbibi	-7782
anabyaha	-7783
ther	-7784
▁buriya	-7785
▁muzima	-7786
▁akekwaho	-7787
▁bikabije	-7788
INDA	-7789
▁yahe	-7790
Kugeza	-7791
hina	-7792
Ikipe	-7793
▁Guma	-7794
▁MRND	-7795
fatire	-7796
▁Umutwe	-7797
▁Sosiyete	-7798
▁Uwamariya	-7799
▁yashimangiye	-7800
▁Yan	-7801
abayi	-7802
uruza	-7803
▁bidu	-7804
▁ikarita	-7805
▁igitsina	-7806
Be	-7807
cene	-7808
▁Hen	-7809
zerwa	-7810
▁kavu	-7811
pfiriye	-7812
inyandiko	-7813
amabwiriza	-7814
▁abaturanyi	-7815
rara	-7816
▁Salo	-7817
▁tumwe	-7818
▁Kibuye	-7819
gutabara	-7820
▁twakora	-7821
teganijwe	-7822
▁bisobanura	-7823
ft	-7824
zefu	-7825
▁Cyi	-7826
bonamo	-7827
ingamba	-7828
▁yakiriwe	-7829
ctor	-7830
rezwa	-7831
▁Miche	-7832
Amafoto	-7833
shyinguwe	-7834
▁ibitangaza	-7835
namo	-7836
▁Bla	-7837
▁Del	-7838
ababi	-7839
zanywe	-7840
▁Zambia	-7841
▁njyewe	-7842
▁abashaka	-7843
▁batsinze	-7844
▁washinze	-7845
▁yandikiye	-7846
Kuba	-7847
▁wana	-7848
▁Marce	-7849
▁indyo	-7850
sengera	-7851
▁Manira	-7852
▁kwandi	-7853
▁atsinda	-7854
tumvikana	-7855
▁bihuriye	-7856
▁kugirira	-7857
spe	-7858
dore	-7859
gaju	-7860
▁miri	-7861
▁yashinzwe	-7862
yubahirizwa	-7863
anye	-7864
rora	-7865
zewe	-7866
umuyaga	-7867
▁Abanye	-7868
▁amashami	-7869
▁yerekanye	-7870
▁gushyingura	-7871
uwari	-7872
▁basuye	-7873
▁guteka	-7874
▁Vianney	-7875
gereranyo	-7876
▁itumanaho	-7877
bune	-7878
▁yarwo	-7879
Akagari	-7880
▁kigiye	-7881
kwirakwizwa	-7882
▁uruzinduko	-7883
▁ON	-7884
intama	-7885
▁akaga	-7886
▁kwiya	-7887
▁buhamya	-7888
TC	-7889
amoko	-7890
▁Nyamu	-7891
garijwe	-7892
yuranyo	-7893
▁Muhire	-7894
fatanije	-7895
▁dutandukanye	-7896
Gi	-7897
mable	-7898
mungu	-7899
▁Inzu	-7900
wuzure	-7901
▁Gitifu	-7902
▁yitabiriwe	-7903
▁Rugan	-7904
▁kumurika	-7905
▁gutegereza	-7906
▁umwanditsi	-7907
kiran	-7908
▁agize	-7909
▁uduce	-7910
▁ingero	-7911
▁Muryango	-7912
▁babashije	-7913
▁Ishyirahamwe	-7914
muni	-7915
simba	-7916
▁bizi	-7917
umugezi	-7918
▁hakwiye	-7919
amajyambere	-7920
dium	-7921
▁parike	-7922
▁zitari	-7923
herereza	-7924
▁iherutse	-7925
▁mbu	-7926
▁apfa	-7927
▁ryan	-7928
▁Yozefu	-7929
▁baravuga	-7930
hima	-7931
hwanye	-7932
▁handi	-7933
▁abasha	-7934
▁mugari	-7935
▁umudari	-7936
▁mbuto	-7937
▁Thomas	-7938
▁yarabi	-7939
umukunzi	-7940
▁muburyo	-7941
▁yaranze	-7942
ubumenyingiro	-7943
tonda	-7944
▁Andre	-7945
▁Mbabazi	-7946
▁yubatswe	-7947
▁Niyonzima	-7948
▁ubunararibonye	-7949
▁—	-7950
tangaga	-7951
▁ngenga	-7952
▁Kamanzi	-7953
▁bafatwa	-7954
▁hambere	-7955
shamikiye	-7956
amakoperative	-7957
Ese	-7958
sheshatu	-7959
▁imyigaragambyo	-7960
Bira	-7961
roha	-7962
▁azira	-7963
▁zigiye	-7964
abashinzwe	-7965
Mo	-7966
Ta	-7967
▁una	-7968
renza	-7969
▁Sawu	-7970
sarura	-7971
uwitwa	-7972
ihuriro	-7973
umwanya	-7974
▁Prince	-7975
▁baguye	-7976
▁Colonel	-7977
▁gitekerezo	-7978
▁ryatangiye	-7979
▁NI	-7980
▁Tim	-7981
▁Valens	-7982
kungahaye	-7983
▁Amafaranga	-7984
▁Amb	-7985
▁Aza	-7986
▁CAF	-7987
▁kuma	-7988
ibihano	-7989
garukira	-7990
▁umuyoboro	-7991
▁wegukanye	-7992
tanya	-7993
ubusa	-7994
▁Colle	-7995
shishozi	-7996
▁aganira	-7997
▁barwayi	-7998
▁bikozwe	-7999
wer	-8000
gendu	-8001
umukozi	-8002
▁tuvuga	-8003
agahinda	-8004
kurikiwe	-8005
▁Ushobora	-8006
▁bahurira	-8007
▁murumuna	-8008
somye	-8009
▁buto	-8010
▁mumu	-8011
Junior	-8012
▁byibuze	-8013
▁inkweto	-8014
▁bakundana	-8015
▁ibikomoka	-8016
▁VS	-8017
gunga	-8018
ritiki	-8019
igitsina	-8020
▁Aimable	-8021
▁Nijeriya	-8022
▁Ebola	-8023
▁bihano	-8024
igifungo	-8025
▁twagiye	-8026
▁ubujura	-8027
▁inzobere	-8028
▁badashobora	-8029
ace	-8030
▁BA	-8031
hizi	-8032
koza	-8033
lasi	-8034
sozwa	-8035
▁binini	-8036
▁Sitasiyo	-8037
▁yegukana	-8038
▁yagerageje	-8039
▁imitekerereze	-8040
▁Hon	-8041
AFOTO	-8042
ukuntu	-8043
▁ahaza	-8044
ingendo	-8045
kirisitu	-8046
▁nguzanyo	-8047
▁Aburahamu	-8048
▁birangira	-8049
Aya	-8050
kiniki	-8051
mbwiye	-8052
▁Villa	-8053
▁Uruganda	-8054
▁yafashije	-8055
uma	-8056
▁Ten	-8057
▁tatu	-8058
▁atabi	-8059
▁ugizwe	-8060
▁yujuje	-8061
gabanuka	-8062
▁igaragara	-8063
▁Eri	-8064
mvaho	-8065
▁Gana	-8066
▁Sibo	-8067
giriza	-8068
▁gahato	-8069
▁videwo	-8070
],	-8071
Nimu	-8072
▁Cro	-8073
▁Jack	-8074
▁kubara	-8075
▁bihembo	-8076
▁Ikinyamakuru	-8077
▁BNR	-8078
▁RRA	-8079
▁Sun	-8080
cyane	-8081
merwa	-8082
▁kubya	-8083
abahanga	-8084
tiyopiya	-8085
▁Mohamed	-8086
▁mugambi	-8087
▁imfungwa	-8088
ikh	-8089
▁By	-8090
higwa	-8091
mbana	-8092
imanza	-8093
▁Mauri	-8094
▁njyana	-8095
▁kwangirika	-8096
hangayikishije	-8097
MC	-8098
OC	-8099
bli	-8100
cyu	-8101
Turi	-8102
less	-8103
fuzaga	-8104
▁Bitaro	-8105
▁bahari	-8106
▁zishingiye	-8107
Wa	-8108
phin	-8109
▁kuhira	-8110
▁zanjye	-8111
▁wavutse	-8112
▁guhatanira	-8113
▁zigaragaza	-8114
▁igwa	-8115
▁Kinigi	-8116
▁kuzajya	-8117
▁imirongo	-8118
▁Iradukunda	-8119
sic	-8120
▁Hare	-8121
dendezo	-8122
kongoro	-8123
▁myanzuro	-8124
remwamuntu	-8125
▁kurandura	-8126
▁yarangije	-8127
ky	-8128
ile	-8129
Umwe	-8130
▁Ger	-8131
▁Turi	-8132
tambyi	-8133
▁gutya	-8134
▁imeze	-8135
▁yunze	-8136
▁itwara	-8137
▁tugize	-8138
▁Ubuzima	-8139
▁igitutu	-8140
▁Diyosezi	-8141
▁bihingwa	-8142
ibicuruzwa	-8143
dis	-8144
amazu	-8145
huguwe	-8146
payini	-8147
▁Niger	-8148
pimisha	-8149
ranijwe	-8150
▁rizaba	-8151
payiniya	-8152
▁gukubita	-8153
▁icyifuzo	-8154
hoo	-8155
ker	-8156
▁KT	-8157
▁SC	-8158
▁Bose	-8159
birigi	-8160
▁ryeme	-8161
▁Global	-8162
▁gicuti	-8163
▁gihari	-8164
▁imyuka	-8165
▁inkoko	-8166
▁batagira	-8167
ONUS	-8168
hati	-8169
▁West	-8170
hoteli	-8171
▁abaye	-8172
▁ntimu	-8173
yumvise	-8174
▁Ihuriro	-8175
▁burambye	-8176
▁hagendewe	-8177
YAN	-8178
▁Alo	-8179
▁Mbese	-8180
▁hakorwa	-8181
▁miriyoni	-8182
▁Abadepite	-8183
rg	-8184
▁Bon	-8185
▁Jay	-8186
▁magendu	-8187
▁mpeshyi	-8188
▁ubwatsi	-8189
▁Yatangiye	-8190
▁batangaje	-8191
kurikiranira	-8192
phi	-8193
logy	-8194
ssion	-8195
▁arya	-8196
▁wera	-8197
rebure	-8198
▁Arabi	-8199
kubwira	-8200
▁Pascal	-8201
▁yigenga	-8202
mvu	-8203
bani	-8204
▁ugi	-8205
▁Team	-8206
▁bakaya	-8207
▁ateganya	-8208
sy	-8209
suru	-8210
▁gucukura	-8211
▁midugudu	-8212
▁ngororamubiri	-8213
pro	-8214
▁Bea	-8215
▁Dji	-8216
▁inyu	-8217
▁Barce	-8218
urugero	-8219
▁kibaya	-8220
▁rukuta	-8221
▁asubiza	-8222
▁kugezwa	-8223
▁bizafasha	-8224
▁izakomeza	-8225
▁bikoreshwa	-8226
uburasirazuba	-8227
Tube	-8228
ford	-8229
ston	-8230
▁mara	-8231
▁bizeye	-8232
▁navuga	-8233
▁ubwiherero	-8234
▁yashoboraga	-8235
▁hateganyijwe	-8236
hite	-8237
masa	-8238
Ibiro	-8239
umura	-8240
jagari	-8241
▁Simon	-8242
▁iterwa	-8243
▁ukubera	-8244
Umutekano	-8245
▁gufashwa	-8246
▁agaragara	-8247
▁afatanyije	-8248
▁ibishyimbo	-8249
zuka	-8250
hemba	-8251
ONUSCO	-8252
nezero	-8253
▁bicwa	-8254
▁congo	-8255
▁kizwi	-8256
▁Kabila	-8257
▁kiraro	-8258
genderaho	-8259
▁ntekereza	-8260
▁abisobanura	-8261
jor	-8262
umwa	-8263
twawe	-8264
ndutse	-8265
abakora	-8266
amasomo	-8267
▁kwihanganira	-8268
▁myigaragambyo	-8269
qui	-8270
▁ntibu	-8271
▁bizajya	-8272
▁imurika	-8273
▁rutanga	-8274
rumvikana	-8275
Uburasirazuba	-8276
hate	-8277
▁ije	-8278
tseho	-8279
▁Sina	-8280
▁Zimwe	-8281
indanga	-8282
▁Umwaka	-8283
▁banyarwanda	-8284
▁kinyamakuru	-8285
Twe	-8286
ngano	-8287
Uwimana	-8288
▁Albert	-8289
▁bikora	-8290
genzurwa	-8291
▁byemejwe	-8292
garutsweho	-8293
▁wamenyekanye	-8294
hangayikishijwe	-8295
bia	-8296
cura	-8297
▁urw	-8298
genwe	-8299
kenshi	-8300
lestin	-8301
▁Grace	-8302
▁ntoki	-8303
▁Benshi	-8304
▁makosa	-8305
▁ukeneye	-8306
▁zatangiye	-8307
uw	-8308
cie	-8309
▁watanze	-8310
▁Twahirwa	-8311
▁butabera	-8312
▁wamamaye	-8313
▁yabitangarije	-8314
guriye	-8315
▁Yunze	-8316
▁Ibindi	-8317
▁bumaze	-8318
▁agaruka	-8319
abadepite	-8320
▁kwishyira	-8321
▁iterabwoba	-8322
▁Ah	-8323
nani	-8324
▁Iba	-8325
▁RDF	-8326
ubura	-8327
▁riti	-8328
ziguye	-8329
▁nicyo	-8330
hinduzi	-8331
▁bongera	-8332
sanganywe	-8333
shyingura	-8334
▁babikora	-8335
▁kudufasha	-8336
▁akarengane	-8337
▁bukoreshwa	-8338
▁nimugoroba	-8339
ek	-8340
cra	-8341
dite	-8342
lsea	-8343
▁Supe	-8344
▁zizwi	-8345
▁umuganda	-8346
TA	-8347
hene	-8348
jijo	-8349
tende	-8350
▁babayeho	-8351
ihohoterwa	-8352
shyikirije	-8353
imikoranire	-8354
impe	-8355
mubwira	-8356
sangiza	-8357
haguruka	-8358
▁amikoro	-8359
▁Turukiya	-8360
▁Sco	-8361
▁gite	-8362
imihanda	-8363
▁mihango	-8364
▁ubucuti	-8365
ibikomoka	-8366
▁ibinyoma	-8367
uti	-8368
turo	-8369
yinya	-8370
▁Karu	-8371
▁ntebe	-8372
heranwa	-8373
ubwenge	-8374
▁gasozi	-8375
yumvikana	-8376
Amafaranga	-8377
▁Nyabugogo	-8378
▁Samishimwe	-8379
▁zibishinzwe	-8380
elle	-8381
huri	-8382
kanama	-8383
▁baran	-8384
ubukene	-8385
▁ibwami	-8386
▁kigega	-8387
▁nkombe	-8388
hohotewe	-8389
▁bitaramo	-8390
▁imirambo	-8391
▁yakoranye	-8392
TAN	-8393
hando	-8394
rombe	-8395
mahoro	-8396
sesuye	-8397
▁Biruta	-8398
▁kwiruka	-8399
CR	-8400
via	-8401
▁Or	-8402
dier	-8403
gori	-8404
urwa	-8405
bugenewe	-8406
▁ndangamurage	-8407
abe	-8408
hat	-8409
▁Mure	-8410
remier	-8411
▁Felix	-8412
▁ingagi	-8413
▁rukuru	-8414
▁turaba	-8415
gejejeho	-8416
▁bitwara	-8417
Ruzindana	-8418
now	-8419
heto	-8420
mbogo	-8421
▁kwaka	-8422
yubatswe	-8423
▁cyanjye	-8424
▁itangaza	-8425
▁penaliti	-8426
gande	-8427
▁Murambi	-8428
▁inzitizi	-8429
hagaritswe	-8430
▁imiyoboro	-8431
▁yabonetse	-8432
▁guhagarara	-8433
▁kijyambere	-8434
polo	-8435
▁Tom	-8436
iwabo	-8437
inteko	-8438
▁ibira	-8439
hinduwe	-8440
▁bahora	-8441
impanuka	-8442
▁umugabane	-8443
▁guhagararira	-8444
akaba	-8445
shoye	-8446
basira	-8447
▁inkwi	-8448
▁mibiri	-8449
▁bikekwa	-8450
wunganira	-8451
hagarariwe	-8452
▁gusesengura	-8453
indo	-8454
▁magare	-8455
▁twakoze	-8456
▁Umukazana	-8457
▁bitandatu	-8458
▁yakundaga	-8459
curo	-8460
onard	-8461
▁site	-8462
▁umura	-8463
bushake	-8464
imisoro	-8465
▁amenyo	-8466
▁ruzaba	-8467
▁babanza	-8468
▁mwiherero	-8469
llah	-8470
▁Cyo	-8471
kwaya	-8472
▁Guhera	-8473
▁baseze	-8474
▁bituruka	-8475
nyo	-8476
cirwa	-8477
▁zawe	-8478
ikindi	-8479
kanywa	-8480
licien	-8481
▁gikuru	-8482
▁YouTube	-8483
mir	-8484
hindi	-8485
▁Muda	-8486
▁amuga	-8487
▁ibyan	-8488
Amavubi	-8489
▁Imikino	-8490
▁Janvier	-8491
▁National	-8492
▁buhoraho	-8493
▁icyarimwe	-8494
▁ugereranije	-8495
og	-8496
abu	-8497
▁Wu	-8498
▁YE	-8499
ndwe	-8500
pool	-8501
▁ibiba	-8502
▁ashize	-8503
▁burwayi	-8504
▁gusenya	-8505
ako	-8506
takaje	-8507
▁Algeria	-8508
icyubahiro	-8509
▁Nisingizwe	-8510
▁imicungire	-8511
buranga	-8512
▁guhiga	-8513
▁umwanzi	-8514
▁ubutabazi	-8515
▁makoperative	-8516
RuzindanaJunior	-8517
menta	-8518
▁basin	-8519
kubitwa	-8520
▁atwite	-8521
▁kurasa	-8522
▁abakoze	-8523
ikinyamakuru	-8524
Gusa	-8525
▁Harimo	-8526
▁Gorilla	-8527
▁amagare	-8528
▁igenamigambi	-8529
▁gare	-8530
Polisi	-8531
▁Macron	-8532
▁afasha	-8533
▁bakuze	-8534
▁byemewe	-8535
Air	-8536
hur	-8537
Imig	-8538
▁...	-8539
▁ziha	-8540
▁abashe	-8541
bahiriza	-8542
cky	-8543
▁Urwo	-8544
twarwa	-8545
▁arabi	-8546
▁mvura	-8547
▁inyigo	-8548
inyubako	-8549
inguzanyo	-8550
▁bitemewe	-8551
FI	-8552
nu	-8553
ihinga	-8554
▁ryara	-8555
▁ifatwa	-8556
▁Mugenzi	-8557
▁rwagati	-8558
▁Ushinzwe	-8559
FC	-8560
kw	-8561
bai	-8562
cupa	-8563
munwa	-8564
▁isha	-8565
fataga	-8566
▁ihabwa	-8567
▁kubaba	-8568
▁cyicaro	-8569
▁JoyeuseC	-8570
▁bacuruzi	-8571
umwimerere	-8572
▁bakamenya	-8573
Jul	-8574
yero	-8575
▁France	-8576
▁ubwonko	-8577
▁byumweru	-8578
▁bakwiriye	-8579
Bo	-8580
▁ikuzo	-8581
verpool	-8582
▁Buyuda	-8583
▁aricyo	-8584
▁ababwira	-8585
▁esheshatu	-8586
▁Kon	-8587
bujije	-8588
tunguye	-8589
▁Imbuto	-8590
▁rigira	-8591
tegetswe	-8592
▁ibisasu	-8593
▁zifasha	-8594
▁ubwigenge	-8595
amajyaruguru	-8596
▁Ngi	-8597
monwe	-8598
singi	-8599
▁itwaye	-8600
▁arangije	-8601
▁bagahabwa	-8602
▁Joe	-8603
▁ato	-8604
linda	-8605
wanjye	-8606
▁ihita	-8607
▁kwari	-8608
tabwaho	-8609
▁imijyi	-8610
▁umukoro	-8611
amajyepfo	-8612
▁Evariste	-8613
rity	-8614
gengwa	-8615
▁mashini	-8616
▁Munyarwanda	-8617
scar	-8618
▁Abdu	-8619
▁Davi	-8620
▁Félix	-8621
amadini	-8622
▁Rukuru	-8623
▁bahoze	-8624
▁moteri	-8625
▁utanga	-8626
▁birenze	-8627
▁byateye	-8628
▁yubatse	-8629
amahugurwa	-8630
▁ntiyigeze	-8631
▁Televiziyo	-8632
▁kugabanuka	-8633
ruke	-8634
▁gake	-8635
▁mugu	-8636
▁kunyu	-8637
Amatora	-8638
shomeri	-8639
▁byitwa	-8640
▁watsinze	-8641
seka	-8642
zindi	-8643
▁Muke	-8644
▁Sala	-8645
▁Sand	-8646
▁Uwin	-8647
kimana	-8648
▁amagi	-8649
butumwa	-8650
▁amenye	-8651
▁atangwa	-8652
monwealth	-8653
▁ibihingwa	-8654
▁uburinganire	-8655
phrem	-8656
▁zimu	-8657
▁Obama	-8658
▁barimu	-8659
ubutumwa	-8660
▁Bwa	-8661
naldo	-8662
range	-8663
▁Ruko	-8664
▁kaba	-8665
Abagore	-8666
JeanJul	-8667
▁mpunzi	-8668
▁kwitaba	-8669
▁Icyiciro	-8670
▁bashinjwa	-8671
UwimanaJeanJul	-8672
rimbyi	-8673
▁album	-8674
▁sinzi	-8675
tambara	-8676
▁Noneho	-8677
▁huriro	-8678
▁byagize	-8679
rwanashyaka	-8680
Uku	-8681
ring	-8682
▁ifu	-8683
▁ser	-8684
tince	-8685
▁kana	-8686
umuhondo	-8687
▁hagomba	-8688
▁kigamije	-8689
▁Umushinjacyaha	-8690
LA	-8691
bozo	-8692
sina	-8693
trice	-8694
▁Tech	-8695
▁ngufi	-8696
Akagera	-8697
geranye	-8698
▁indabo	-8699
▁izamuka	-8700
▁yasubije	-8701
sobanuriye	-8702
tekerezaga	-8703
bel	-8704
▁UW	-8705
inzi	-8706
▁Min	-8707
▁isho	-8708
girire	-8709
▁twuba	-8710
shiriza	-8711
ingurube	-8712
▁ikiguzi	-8713
▁ingwate	-8714
▁yabashije	-8715
▁Bin	-8716
▁atera	-8717
▁Munyakazi	-8718
▁korohereza	-8719
Abanyamerika	-8720
idini	-8721
▁asubira	-8722
▁udafite	-8723
karengane	-8724
▁Munyantore	-8725
▁km	-8726
shinya	-8727
▁batwi	-8728
rukanye	-8729
▁Yabaye	-8730
▁Burkina	-8731
▁umujyanama	-8732
gane	-8733
pora	-8734
tonze	-8735
▁namu	-8736
▁ukwe	-8737
▁afatwa	-8738
▁akayabo	-8739
shyirwamo	-8740
vugururwa	-8741
▁kavukire	-8742
▁abinyujije	-8743
▁ahagarariye	-8744
SE	-8745
gwan	-8746
shyo	-8747
jumba	-8748
tesha	-8749
riyeho	-8750
▁ikina	-8751
▁jambo	-8752
▁ntawa	-8753
▁Ndetse	-8754
▁twasanze	-8755
oni	-8756
ship	-8757
▁Hand	-8758
bandwa	-8759
▁Gatete	-8760
▁wamaze	-8761
ririmbyi	-8762
shimirwa	-8763
tincelles	-8764
ayisumbuye	-8765
tangiranye	-8766
umunyarwanda	-8767
▁UB	-8768
guwe	-8769
▁riga	-8770
▁ibona	-8771
▁bagana	-8772
▁bongeye	-8773
▁kunyura	-8774
▁lisansi	-8775
▁Francois	-8776
qua	-8777
▁Nami	-8778
muremyi	-8779
▁Ingoro	-8780
Ubukungu	-8781
ua	-8782
RUZ	-8783
▁OMS	-8784
zamuye	-8785
▁amaka	-8786
▁uzajya	-8787
garagaze	-8788
hahirane	-8789
▁iboneka	-8790
▁yemejwe	-8791
tandukaniro	-8792
▁rwisumbuye	-8793
▁Mai	-8794
burayi	-8795
▁ahana	-8796
RUZINDA	-8797
▁Dieudon	-8798
▁yashatse	-8799
▁ikinamico	-8800
):	-8801
mbiya	-8802
▁yaya	-8803
imbano	-8804
koraho	-8805
▁Bukeye	-8806
▁Byumba	-8807
▁bikuru	-8808
▁afungiye	-8809
▁CharlesRUZINDA	-8810
Ca	-8811
mane	-8812
canwa	-8813
▁kune	-8814
inzoga	-8815
remire	-8816
▁kamaro	-8817
▁ikiyaga	-8818
▁poritiki	-8819
▁bikorerwa	-8820
▁uharanira	-8821
umunyamakuru	-8822
▁yifashishije	-8823
▁Burengerazuba	-8824
boni	-8825
pita	-8826
thon	-8827
▁Cyu	-8828
▁ONU	-8829
ubumu	-8830
zubakwa	-8831
hangange	-8832
▁gihembo	-8833
▁imisozi	-8834
imicungire	-8835
shyingurwa	-8836
▁umunyezamu	-8837
▁Ura	-8838
▁atyo	-8839
Umuntu	-8840
vuriza	-8841
▁ruhando	-8842
▁zatumye	-8843
▁bikorera	-8844
▁kwambuka	-8845
▁abashyitsi	-8846
▁ibyagezweho	-8847
sen	-8848
cine	-8849
razil	-8850
yirize	-8851
hamijwe	-8852
▁ibyavuye	-8853
▁gushyiramo	-8854
ubushinjacyaha	-8855
TU	-8856
lf	-8857
yabe	-8858
▁bagire	-8859
▁Somalia	-8860
▁uburebure	-8861
▁ubudahangarwa	-8862
Uwa	-8863
gemu	-8864
king	-8865
tawe	-8866
rengwa	-8867
shakiye	-8868
tungane	-8869
▁Alexis	-8870
▁rurimo	-8871
▁Company	-8872
▁Ibitaro	-8873
▁mirwano	-8874
▁gashinzwe	-8875
▁riherereye	-8876
AP	-8877
DP	-8878
cole	-8879
dali	-8880
guti	-8881
zand	-8882
▁One	-8883
▁Aust	-8884
cience	-8885
▁Libya	-8886
▁kuvana	-8887
▁Chelsea	-8888
▁agahita	-8889
▁bigizwe	-8890
▁bafunzwe	-8891
▁bahitamo	-8892
Nya	-8893
vie	-8894
▁nawo	-8895
▁ihene	-8896
▁kizaza	-8897
▁yakora	-8898
▁ambasade	-8899
▁RBA	-8900
▁jyewe	-8901
▁ntoya	-8902
▁yijeje	-8903
garitswe	-8904
gabanyije	-8905
▁asimbuye	-8906
▁igishoro	-8907
▁Nizeyimana	-8908
mie	-8909
▁‘‘	-8910
suka	-8911
▁Kiri	-8912
shakamo	-8913
▁irindi	-8914
▁miremire	-8915
tekerezaho	-8916
▁Bé	-8917
mwita	-8918
horera	-8919
▁Micha	-8920
koranye	-8921
sobanuwe	-8922
▁mugongo	-8923
▁zikoresha	-8924
▁Development	-8925
Yoh	-8926
▁jya	-8927
ristu	-8928
▁Imyi	-8929
▁wakwi	-8930
▁kiciro	-8931
▁kwitwa	-8932
rangingo	-8933
▁babwiye	-8934
garagaraga	-8935
Umunyarwanda	-8936
▁Abisirayeli	-8937
De	-8938
▁Fil	-8939
▁MONUSCO	-8940
▁bahunga	-8941
shakishwa	-8942
▁intandaro	-8943
▁ryabereye	-8944
▁kwirwanaho	-8945
▁GI	-8946
Abanye	-8947
▁intwari	-8948
▁ubucukuzi	-8949
gereranyije	-8950
▁budasanzwe	-8951
ruri	-8952
umusore	-8953
▁zigira	-8954
vuguruye	-8955
Amadolari	-8956
▁Umubyeyi	-8957
▁biku	-8958
▁Afite	-8959
▁Alain	-8960
▁Party	-8961
▁ubusu	-8962
▁buzaba	-8963
▁nagiye	-8964
▁kurebera	-8965
▁kuruhuka	-8966
▁cyerekezo	-8967
▁abahagarariye	-8968
▁ziti	-8969
cukura	-8970
AMAFOTO	-8971
▁Nyundo	-8972
▁kabari	-8973
▁kigera	-8974
vuguruwe	-8975
▁agasaba	-8976
umudugudu	-8977
▁rigamije	-8978
▁icyangombwa	-8979
ia	-8980
Iri	-8981
rum	-8982
▁Ac	-8983
itora	-8984
karaba	-8985
shinje	-8986
▁ngeri	-8987
▁wanyu	-8988
▁Bernard	-8989
▁tumenye	-8990
▁kiruhuko	-8991
▁bicuruzwa	-8992
▁ibikorwaremezo	-8993
BAN	-8994
buzi	-8995
tina	-8996
▁Ele	-8997
byibu	-8998
jonjora	-8999
▁kubaga	-9000
boneraho	-9001
▁Gilbert	-9002
shingirwa	-9003
▁Gikongoro	-9004
ibitekerezo	-9005
▁at	-9006
▁kato	-9007
▁zitu	-9008
kiriza	-9009
▁inyoni	-9010
▁Jacques	-9011
shyingiran	-9012
▁ubuhungiro	-9013
des	-9014
lona	-9015
laire	-9016
▁yasu	-9017
rimbye	-9018
mutungo	-9019
▁keretse	-9020
▁kumvira	-9021
▁hatangiye	-9022
▁hashyirwaho	-9023
▁kwigarurira	-9024
enda	-9025
rise	-9026
▁Ade	-9027
▁Buj	-9028
janda	-9029
▁bibe	-9030
▁umwo	-9031
▁IBUKA	-9032
yubatse	-9033
▁iranga	-9034
▁kigomba	-9035
▁abayoboke	-9036
▁atekereza	-9037
shing	-9038
▁ziki	-9039
▁ikigega	-9040
herereyemo	-9041
▁bwakorewe	-9042
▁ruherereye	-9043
Leta	-9044
▁Dou	-9045
hinja	-9046
kinaga	-9047
▁ashima	-9048
▁Institu	-9049
inea	-9050
buguzi	-9051
▁inkoni	-9052
▁ngendo	-9053
kurikirane	-9054
▁amatorero	-9055
rore	-9056
cyuho	-9057
▁Faso	-9058
▁Para	-9059
▁batwite	-9060
▁Liverpool	-9061
▁Etincelles	-9062
Ge	-9063
hume	-9064
▁Inko	-9065
▁gutwi	-9066
▁Zaburi	-9067
▁amusaba	-9068
▁ingorane	-9069
▁yashinze	-9070
Ikoranabuhanga	-9071
beya	-9072
▁ipa	-9073
▁Kali	-9074
▁avuka	-9075
▁azize	-9076
▁ngomba	-9077
▁byamaze	-9078
▁yahabwa	-9079
shyigikiwe	-9080
▁Kayiranga	-9081
mence	-9082
▁FIFA	-9083
Ibanze	-9084
▁ubuta	-9085
▁yaguze	-9086
yumvisha	-9087
ut	-9088
Uko	-9089
zza	-9090
▁ukwa	-9091
▁Leonard	-9092
▁guhindu	-9093
▁ashoboye	-9094
▁kwikorera	-9095
▁yaherukaga	-9096
▁gushidikanya	-9097
».	-9098
tuku	-9099
rindwa	-9100
riramo	-9101
girwamana	-9102
▁yagenewe	-9103
tegekimana	-9104
▁gicamunsi	-9105
nwe	-9106
tit	-9107
▁vo	-9108
cuza	-9109
Ibyak	-9110
▁bibaho	-9111
▁amaguru	-9112
▁bajyanwa	-9113
▁ibyifuzo	-9114
▁bugezweho	-9115
▁ntaramakuru	-9116
▁byagaragajwe	-9117
Luka	-9118
▁Fin	-9119
bangu	-9120
umbura	-9121
▁Gerard	-9122
▁butari	-9123
▁manywa	-9124
gurishije	-9125
▁amatsiko	-9126
▁ateganyijwe	-9127
ST	-9128
▁KI	-9129
▁Pl	-9130
▁YA	-9131
prien	-9132
inyuma	-9133
subire	-9134
▁zijya	-9135
shimiwe	-9136
▁icyuma	-9137
shyushye	-9138
▁Ruganzu	-9139
▁bugaragara	-9140
▁miyoborere	-9141
ters	-9142
▁III	-9143
nerali	-9144
▁Times	-9145
kemurwa	-9146
▁Ngenda	-9147
▁gutema	-9148
▁umuhigo	-9149
▁yandika	-9150
▁aramutse	-9151
amakimbirane	-9152
▁interahamwe	-9153
▁makimbirane	-9154
ix	-9155
pis	-9156
bihe	-9157
tugu	-9158
▁bar	-9159
▁Major	-9160
▁iteye	-9161
▁gisanzwe	-9162
▁zikomeje	-9163
tobe	-9164
▁yawo	-9165
▁ziva	-9166
rerure	-9167
▁rwaba	-9168
intwari	-9169
kubiswe	-9170
▁nkingi	-9171
▁dukwiye	-9172
▁yishyura	-9173
▁Umukinnyi	-9174
engo	-9175
▁Sida	-9176
▁ryaba	-9177
▁umeze	-9178
▁Premier	-9179
▁bikwiriye	-9180
ariko	-9181
izamu	-9182
▁yewe	-9183
umweru	-9184
▁Serivi	-9185
ngererwa	-9186
▁bwemewe	-9187
▁yanditswe	-9188
ed	-9189
ibice	-9190
▁koga	-9191
shashi	-9192
▁bacye	-9193
▁kunga	-9194
tunguwe	-9195
▁bataha	-9196
▁bukeye	-9197
▁yumvaga	-9198
▁Umuvandimwe	-9199
▁idu	-9200
▁bumu	-9201
dafite	-9202
▁Dubai	-9203
▁gikora	-9204
yubakira	-9205
▁byangiza	-9206
▁nyirizina	-9207
Uburenganzira	-9208
▁amarangamutima	-9209
▁imikoreshereze	-9210
ARA	-9211
rey	-9212
buke	-9213
cono	-9214
siba	-9215
shime	-9216
▁Timo	-9217
▁nubu	-9218
▁umwere	-9219
ifumbire	-9220
▁Clement	-9221
▁ryabaye	-9222
▁ukomeje	-9223
▁resitora	-9224
▁rubyiniro	-9225
▁ryerekeye	-9226
▁mwese	-9227
wandiko	-9228
▁Kalisa	-9229
▁ntitwa	-9230
▁College	-9231
▁Muganga	-9232
▁isukari	-9233
shimishwa	-9234
▁bakomeze	-9235
▁gufatira	-9236
▁bateganya	-9237
▁kwizigamira	-9238
▁kwiyandikisha	-9239
xy	-9240
▁vs	-9241
▁SADC	-9242
shwana	-9243
kusenge	-9244
▁Justin	-9245
garurira	-9246
▁arindwi	-9247
▁bakumva	-9248
▁numvaga	-9249
▁rurerure	-9250
▁tekiniki	-9251
korerabushake	-9252
▁?	-9253
▁KO	-9254
▁ipfu	-9255
▁mico	-9256
ingano	-9257
yanika	-9258
▁Benin	-9259
▁maraso	-9260
▁Cyprien	-9261
abarokotse	-9262
LN	-9263
▁au	-9264
zane	-9265
cyura	-9266
▁Maze	-9267
▁kaza	-9268
▁byago	-9269
▁macye	-9270
▁nyaba	-9271
▁Luanda	-9272
▁uregwa	-9273
garagazaga	-9274
▁ntarengwa	-9275
shanyigisho	-9276
▁WA	-9277
▁ICT	-9278
ingagi	-9279
▁Sawuli	-9280
▁kumera	-9281
▁abasaga	-9282
▁Commonwealth	-9283
et	-9284
sk	-9285
frw	-9286
▁min	-9287
▁mucyo	-9288
twitter	-9289
zihizwa	-9290
▁bwuzuye	-9291
▁mitungo	-9292
▁bahagaze	-9293
▁sisitemu	-9294
▁uburemere	-9295
rtu	-9296
▁CP	-9297
vayi	-9298
▁Nka	-9299
Bamwe	-9300
hunze	-9301
wunge	-9302
sigiye	-9303
▁Iteka	-9304
▁Sheikh	-9305
▁basoje	-9306
huriweho	-9307
▁umuhanga	-9308
Ib	-9309
▁Fes	-9310
Abana	-9311
Congo	-9312
▁Gabon	-9313
zungura	-9314
▁sitade	-9315
▁bikoresha	-9316
sezeranyije	-9317
▁bisobanuye	-9318
kar	-9319
dehe	-9320
ibye	-9321
yoye	-9322
ubwiza	-9323
▁Women	-9324
mbaraga	-9325
▁Byongeye	-9326
▁Barcelona	-9327
▁East	-9328
sabiye	-9329
▁ububa	-9330
▁kabone	-9331
▁ubwayo	-9332
▁Abenshi	-9333
▁biboneka	-9334
▁nyaburanga	-9335
▁bifashishije	-9336
▁RT	-9337
toye	-9338
▁Sho	-9339
iteka	-9340
imboga	-9341
ramuka	-9342
▁ababu	-9343
▁avuze	-9344
bagirwa	-9345
tubwira	-9346
▁yasize	-9347
▁Ronaldo	-9348
▁bukorwa	-9349
▁Clemence	-9350
▁amaherezo	-9351
▁kwibasira	-9352
Af	-9353
haha	-9354
kwaga	-9355
mbiro	-9356
▁Ibuka	-9357
▁nkaho	-9358
▁servi	-9359
Umuvunyi	-9360
▁Komiseri	-9361
▁agahabwa	-9362
HOVA	-9363
▁Fer	-9364
▁Par	-9365
genzo	-9366
mfasha	-9367
▁Confe	-9368
▁abagi	-9369
urugomo	-9370
▁akinira	-9371
▁umusaza	-9372
▁Amashuri	-9373
▁zabukuru	-9374
▁umushoferi	-9375
▁wayoboraga	-9376
▁VUP	-9377
▁Baka	-9378
ranaga	-9379
rerero	-9380
reshya	-9381
▁azamu	-9382
▁bibaza	-9383
▁byanze	-9384
▁bagifite	-9385
▁Bujumbura	-9386
deni	-9387
▁bijya	-9388
▁bazamu	-9389
▁kwimura	-9390
▁kwemezwa	-9391
▁bagerageje	-9392
▁Fc	-9393
bega	-9394
remyi	-9395
▁wama	-9396
inyanja	-9397
▁ruhago	-9398
yubakire	-9399
▁Abagabo	-9400
▁ajyanwa	-9401
▁ntambwe	-9402
▁abicanyi	-9403
▁hamenyekane	-9404
ffe	-9405
llo	-9406
...]	-9407
abamu	-9408
▁cyamu	-9409
▁Mugesera	-9410
▁Rwibutso	-9411
▁ifatanyije	-9412
Aho	-9413
kopi	-9414
▁baze	-9415
abacuruzi	-9416
▁imigisha	-9417
▁Per	-9418
▁Benja	-9419
riganya	-9420
cyubahiro	-9421
▁ukekwaho	-9422
▁Imiryango	-9423
▁bagasanga	-9424
▁yahishuye	-9425
▁Umucamanza	-9426
ws	-9427
IMPA	-9428
cling	-9429
▁ribi	-9430
yirizwa	-9431
yisenga	-9432
tangizwa	-9433
▁abamaze	-9434
▁amacumbi	-9435
Ishyirahamwe	-9436
,’	-9437
YIZA	-9438
vile	-9439
pfumu	-9440
tumaga	-9441
▁Menya	-9442
▁nyayo	-9443
mategeko	-9444
▁Ishyaka	-9445
▁bikomoka	-9446
▁Murangira	-9447
Uburengerazuba	-9448
EDUC	-9449
bukwe	-9450
▁Pasi	-9451
babaza	-9452
inyoni	-9453
rangare	-9454
▁YEHOVA	-9455
▁matungo	-9456
▁muyoboro	-9457
▁ihungabana	-9458
▁Hategekimana	-9459
vé	-9460
dro	-9461
nsa	-9462
▁Nel	-9463
▁uya	-9464
impande	-9465
imyenda	-9466
▁amande	-9467
▁batawe	-9468
▁umutware	-9469
▁zigezweho	-9470
pt	-9471
ziga	-9472
fubyi	-9473
kenga	-9474
▁Asaba	-9475
dindiza	-9476
▁Brazil	-9477
▁hagira	-9478
▁Nyobozi	-9479
▁gutwika	-9480
▁uruhande	-9481
▁hagaragara	-9482
▁Uwizeyimana	-9483
▁Pen	-9484
▁Kabu	-9485
▁data	-9486
shingi	-9487
▁birindwi	-9488
▁wihariye	-9489
▁zituruka	-9490
Icyongereza	-9491
▁Nyakwigendera	-9492
Vi	-9493
AMA	-9494
SSB	-9495
▁ACP	-9496
▁video	-9497
gerweho	-9498
▁imbaga	-9499
▁zabaye	-9500
Abarundi	-9501
▁Umugezi	-9502
▁ntiyari	-9503
imishinga	-9504
ubujurire	-9505
▁bitabira	-9506
▁Damascene	-9507
rial	-9508
terasi	-9509
▁ahera	-9510
▁areba	-9511
▁kungu	-9512
binjira	-9513
▁Masisi	-9514
▁mukozi	-9515
▁nsanga	-9516
▁rwemeje	-9517
▁Sibomana	-9518
▁ibyokurya	-9519
▁kwamagana	-9520
indashyikirwa	-9521
taga	-9522
bajwe	-9523
bonana	-9524
rageza	-9525
▁bwana	-9526
aborozi	-9527
▁Mukaru	-9528
▁Kibungo	-9529
▁Michael	-9530
▁mashami	-9531
▁yabigarutseho	-9532
incu	-9533
yobe	-9534
▁Nama	-9535
Umwana	-9536
gendwa	-9537
guraga	-9538
inkoko	-9539
▁Byari	-9540
▁tujye	-9541
tandura	-9542
▁bikamu	-9543
▁yishyu	-9544
▁umumaro	-9545
▁Urubanza	-9546
▁bahereye	-9547
▁koroshya	-9548
▁yiyongera	-9549
▁kwishyurwa	-9550
kunde	-9551
▁ruke	-9552
katiwe	-9553
yirizo	-9554
▁ikibi	-9555
▁moshi	-9556
▁Claire	-9557
▁Noheli	-9558
▁birego	-9559
▁ungana	-9560
▁Bivugwa	-9561
▁gitanga	-9562
▁ikiraro	-9563
▁yabyaye	-9564
▁babonaga	-9565
▁kugendera	-9566
ang	-9567
lde	-9568
hiri	-9569
minari	-9570
tswana	-9571
▁Mutesi	-9572
▁kuryama	-9573
▁kwicara	-9574
▁myitwarire	-9575
▁witabiriye	-9576
tch	-9577
jiji	-9578
noze	-9579
▁Yves	-9580
byimana	-9581
▁fatizo	-9582
▁zifata	-9583
▁Abarundi	-9584
▁Umututsi	-9585
▁basobanu	-9586
pfukamunwa	-9587
▁warangiye	-9588
▁MunyantoreC	-9589
icyitegererezo	-9590
▁umunyamuryango	-9591
rou	-9592
zamo	-9593
jinya	-9594
▁ikan	-9595
▁Stadium	-9596
▁ahagaze	-9597
▁byabaga	-9598
▁terefone	-9599
▁mwo	-9600
▁biko	-9601
rageze	-9602
▁torero	-9603
▁binjira	-9604
▁Bugarama	-9605
▁bafatanya	-9606
▁bab	-9607
eline	-9608
▁Labo	-9609
amasoko	-9610
▁ibyabo	-9611
▁isambu	-9612
▁kunyereza	-9613
▁RPA	-9614
▁Sto	-9615
mbati	-9616
shuru	-9617
zanwa	-9618
▁Baye	-9619
▁Sara	-9620
▁Sudan	-9621
yenyeri	-9622
▁mugani	-9623
amabanki	-9624
imirenge	-9625
▁Umubare	-9626
▁imipira	-9627
▁afitanye	-9628
imbogamizi	-9629
▁yaturutse	-9630
▁Mukeshimana	-9631
▁Ly	-9632
gema	-9633
▁ABA	-9634
tique	-9635
▁inke	-9636
▁yaki	-9637
iburyo	-9638
▁Kayitesi	-9639
habi	-9640
▁baro	-9641
▁hada	-9642
shyiga	-9643
Uturere	-9644
vention	-9645
yirijwe	-9646
▁ubusabe	-9647
ibyumweru	-9648
▁nyigisho	-9649
▁yemereye	-9650
▁guhamagara	-9651
menyekanisha	-9652
hebe	-9653
sita	-9654
▁Imvaho	-9655
▁bibangamiye	-9656
▁bukerarugendo	-9657
GP	-9658
onne	-9659
▁Roma	-9660
▁gika	-9661
komotse	-9662
▁inyoko	-9663
▁yicaye	-9664
▁Tugomba	-9665
▁nshobora	-9666
ubwikorezi	-9667
OS	-9668
▁°	-9669
▁buti	-9670
▁hati	-9671
▁moya	-9672
▁bitaza	-9673
▁yaraye	-9674
▁banduye	-9675
▁urumogi	-9676
▁zigenda	-9677
▁Benjamin	-9678
▁kwirukana	-9679
▁Plc	-9680
ducer	-9681
sumba	-9682
▁Inzo	-9683
▁kimu	-9684
rekera	-9685
ubukwe	-9686
▁Isoko	-9687
▁baregwa	-9688
▁gutinya	-9689
▁Gatabazi	-9690
▁Handball	-9691
▁ingurube	-9692
▁yateguye	-9693
▁Etiyopiya	-9694
▁rikorerwa	-9695
▁rigaragaza	-9696
▁Jim	-9697
▁Pet	-9698
▁bakura	-9699
▁barayi	-9700
▁wakora	-9701
fungirwa	-9702
▁bifatika	-9703
▁byongera	-9704
▁gukomeye	-9705
abakoresha	-9706
▁bitoroshye	-9707
▁Ven	-9708
myaka	-9709
▁Bura	-9710
fatwaga	-9711
▁Ernest	-9712
fatanywe	-9713
sambanyi	-9714
▁Malariya	-9715
▁bigakorwa	-9716
▁fondasiyo	-9717
▁banyamuryango	-9718
Za	-9719
COM	-9720
Rom	-9721
fer	-9722
▁ahura	-9723
Inganda	-9724
▁kuvamo	-9725
hamagaye	-9726
yambarire	-9727
...”	-9728
ocide	-9729
wundi	-9730
▁Inge	-9731
▁Kige	-9732
▁Muni	-9733
▁Agace	-9734
pfakazi	-9735
▁Guinea	-9736
▁impeta	-9737
▁kandida	-9738
▁wigisha	-9739
▁Facebook	-9740
▁atangiye	-9741
▁bwiherero	-9742
▁byatangaje	-9743
▁bunyuranyije	-9744
henda	-9745
burayo	-9746
Amashuri	-9747
yemerere	-9748
▁Ibibazo	-9749
▁bumvise	-9750
▁batabona	-9751
geka	-9752
▁Tou	-9753
genwa	-9754
▁Vita	-9755
hageze	-9756
pfusha	-9757
ranire	-9758
yabete	-9759
▁ndaba	-9760
▁nkana	-9761
hanirwa	-9762
▁Karama	-9763
pfushije	-9764
▁batwara	-9765
garagayemo	-9766
sozo	-9767
tane	-9768
▁Ami	-9769
cenge	-9770
gabwe	-9771
▁abyi	-9772
▁ataba	-9773
gwaneza	-9774
▁bakira	-9775
▁kuzura	-9776
▁Theogene	-9777
▁bashakaga	-9778
▁Ndayisenga	-9779
▁Habu	-9780
▁indu	-9781
▁mizi	-9782
▁asiga	-9783
▁Muhoza	-9784
▁bakenera	-9785
▁bidakwiye	-9786
▁yahagaritse	-9787
uburengerazuba	-9788
UH	-9789
gwaho	-9790
▁Imwe	-9791
▁Seba	-9792
▁butu	-9793
▁disi	-9794
ganaga	-9795
mugaye	-9796
▁Egide	-9797
geranyo	-9798
▁Tennis	-9799
musaruro	-9800
amatorero	-9801
▁cyakozwe	-9802
▁Icyongereza	-9803
▁ngenderwaho	-9804
sire	-9805
tival	-9806
cucike	-9807
rasiyo	-9808
▁Hamwe	-9809
▁House	-9810
▁Sacco	-9811
▁Uwase	-9812
▁mpano	-9813
▁rwayo	-9814
▁amenya	-9815
▁Amateka	-9816
▁Igikombe	-9817
▁RwandAir	-9818
▁Musabyimana	-9819
had	-9820
huriza	-9821
▁zihari	-9822
zandengo	-9823
▁Chantal	-9824
▁muganda	-9825
▁igu	-9826
senda	-9827
yemera	-9828
zigera	-9829
▁afashe	-9830
▁Abahinzi	-9831
▁Uwamahoro	-9832
▁Basenateri	-9833
▁bagakomeza	-9834
▁gushyirwaho	-9835
generwabikorwa	-9836
wanyu	-9837
▁indo	-9838
Ikindi	-9839
▁Peace	-9840
▁akumva	-9841
▁binjiye	-9842
jandarume	-9843
▁mukecuru	-9844
▁barasabwa	-9845
▁yahitanye	-9846
▁Rut	-9847
hoozi	-9848
mpani	-9849
▁Muja	-9850
Ingoro	-9851
siness	-9852
▁utuma	-9853
yaremye	-9854
▁hakaza	-9855
gendanye	-9856
▁hakurya	-9857
▁yatangijwe	-9858
IMAN	-9859
tezi	-9860
than	-9861
▁mabuye	-9862
▁Rukundo	-9863
▁agakora	-9864
▁gusinya	-9865
▁inkingi	-9866
akarengane	-9867
▁yarangiye	-9868
▁Birumvikana	-9869
cro	-9870
caga	-9871
sogo	-9872
▁gitu	-9873
▁usaba	-9874
▁kubuza	-9875
▁Kamembe	-9876
▁yakunze	-9877
▁impuguke	-9878
▁udasanzwe	-9879
▁igikoresho	-9880
▁imyiteguro	-9881
▁Nderabuzima	-9882
▁Ikoranabuhanga	-9883
▁Kabe	-9884
▁bazana	-9885
▁kigira	-9886
▁mubano	-9887
▁yitwaye	-9888
▁zingana	-9889
▁byafasha	-9890
▁byitezwe	-9891
ibishyimbo	-9892
▁Dukurikije	-9893
tain	-9894
▁Andi	-9895
duhaye	-9896
▁Alice	-9897
nganiye	-9898
▁bivuye	-9899
▁dusaba	-9900
▁Rwigara	-9901
▁akanama	-9902
▁isigaye	-9903
▁igabanya	-9904
▁bashobore	-9905
▁imfashanyo	-9906
▁rutunganya	-9907
▁ukoresheje	-9908
▁go	-9909
▁Tri	-9910
▁uje	-9911
ganyi	-9912
hishu	-9913
▁Euro	-9914
ibanga	-9915
▁abaguzi	-9916
▁habereye	-9917
▁Harerimana	-9918
pé	-9919
▁dro	-9920
▁pic	-9921
kwavu	-9922
zaniye	-9923
▁Ndaba	-9924
▁icyumba	-9925
▁mpapuro	-9926
▁myumvire	-9927
▁baharanira	-9928
▁hagaragaye	-9929
▁bigaragazwa	-9930
rege	-9931
▁Kam	-9932
Avuga	-9933
lixte	-9934
▁Fund	-9935
▁Ruju	-9936
▁masa	-9937
▁musa	-9938
▁mujye	-9939
▁radio	-9940
▁bugiye	-9941
▁inzoka	-9942
▁mahame	-9943
▁ufasha	-9944
koreramo	-9945
▁kwigana	-9946
▁guhurira	-9947
IF	-9948
RWf	-9949
nara	-9950
kenya	-9951
▁Inka	-9952
▁Nari	-9953
▁kizi	-9954
▁iyihe	-9955
Itorero	-9956
▁biteze	-9957
▁mihigo	-9958
▁rukumbi	-9959
▁umukamo	-9960
▁itangiye	-9961
▁umugaragu	-9962
▁yakoreshejwe	-9963
▁Dé	-9964
ruro	-9965
▁ibura	-9966
▁baterwa	-9967
yabupfura	-9968
▁Botswana	-9969
refegitura	-9970
▁ukurikije	-9971
▁yateranye	-9972
zinga	-9973
▁bago	-9974
▁gushi	-9975
▁Laurent	-9976
korerwamo	-9977
▁bikomeza	-9978
▁ifaranga	-9979
▁yatorewe	-9980
▁zirindwi	-9981
▁gukingira	-9982
▁ibyiringiro	-9983
Aha	-9984
pfira	-9985
▁amuha	-9986
imibare	-9987
▁Umugaba	-9988
▁Internet	-9989
▁gutegeka	-9990
▁kunganira	-9991
vumo	-9992
▁Mer	-9993
hwema	-9994
▁yine	-9995
▁kirwa	-9996
tabasha	-9997
▁Centra	-9998
▁Salomo	-9999
▁kurema	-10000
▁mufite	-10001
▁urugomo	-10002
abarwanyi	-10003
▁Festival	-10004
▁Igikorwa	-10005
▁guhatana	-10006
▁abakiliya	-10007
mme	-10008
herwe	-10009
▁sima	-10010
▁Ameri	-10011
▁Ibigo	-10012
▁ishya	-10013
▁yamwi	-10014
▁bazabi	-10015
Uburundi	-10016
urugamba	-10017
▁ukoresha	-10018
▁Wungirije	-10019
▁baherutse	-10020
siden	-10021
▁Gatu	-10022
abanye	-10023
fisiye	-10024
▁CYIZA	-10025
▁bibera	-10026
dirishya	-10027
ibyishimo	-10028
umwanditsi	-10029
▁intungamubiri	-10030
EF	-10031
iye	-10032
vel	-10033
▁Kwe	-10034
▁bazo	-10035
garara	-10036
▁Video	-10037
geranya	-10038
▁basura	-10039
ristiano	-10040
▁gikwiye	-10041
▁bakongera	-10042
▁barusheho	-10043
▁byibasiye	-10044
GM	-10045
bra	-10046
hayo	-10047
▁Eto	-10048
temba	-10049
koriko	-10050
▁Aloys	-10051
▁Izina	-10052
abasore	-10053
▁bakeka	-10054
▁ibishanga	-10055
▁bitangazamakuru	-10056
iti	-10057
nana	-10058
sasa	-10059
▁Hara	-10060
▁Plat	-10061
indimi	-10062
▁ahora	-10063
▁Health	-10064
▁Mutara	-10065
▁Nyiran	-10066
korikori	-10067
senyutse	-10068
▁Kwakira	-10069
▁agasanga	-10070
▁amahitamo	-10071
▁yahakanye	-10072
▁amasengesho	-10073
▁inyeshyamba	-10074
EP	-10075
hure	-10076
ziza	-10077
desha	-10078
ibitabo	-10079
▁amasasu	-10080
▁amatara	-10081
sezeranya	-10082
▁baturiye	-10083
▁hafashwe	-10084
Aga	-10085
bre	-10086
▁Ed	-10087
▁Asso	-10088
▁joro	-10089
▁kilo	-10090
IMPAYE	-10091
basiwe	-10092
giriki	-10093
hiriye	-10094
▁Messi	-10095
▁UWIMAN	-10096
▁biciye	-10097
▁kubica	-10098
impuguke	-10099
komereje	-10100
shington	-10101
bangamiwe	-10102
▁yaduhaye	-10103
▁batabasha	-10104
▁ikurikira	-10105
▁kwibasirwa	-10106
▁UWIMANIMPAYE	-10107
iburengerazuba	-10108
▁abashakashatsi	-10109
mart	-10110
ryan	-10111
venal	-10112
kosora	-10113
vugiye	-10114
▁Kanya	-10115
▁bukwe	-10116
▁umurwa	-10117
ivangura	-10118
▁Muhoozi	-10119
▁basubira	-10120
▁guhashya	-10121
▁bafungiye	-10122
▁kinyamwuga	-10123
abatarengeje	-10124
▁REB	-10125
▁nan	-10126
bumba	-10127
▁Know	-10128
sigazwa	-10129
▁nagira	-10130
▁yaraba	-10131
▁Nyirama	-10132
▁butanga	-10133
▁nyirayo	-10134
▁Cameroun	-10135
▁cyafashwe	-10136
▁biherereye	-10137
his	-10138
zer	-10139
rinze	-10140
▁Brig	-10141
▁Yuda	-10142
pfunyi	-10143
▁Simba	-10144
▁bishe	-10145
▁kwabo	-10146
▁mvuga	-10147
▁apfuye	-10148
▁bataba	-10149
▁bazima	-10150
▁bitaga	-10151
▁ibyari	-10152
▁twakwi	-10153
▁bukomeje	-10154
▁izafasha	-10155
▁miterere	-10156
▁bibafasha	-10157
▁uherereye	-10158
▁ubugenzuzi	-10159
hanganishije	-10160
▁ikinyuranyo	-10161
▁barakomereka	-10162
feza	-10163
▁Syli	-10164
▁Abako	-10165
▁nzoga	-10166
▁bicaye	-10167
▁batigeze	-10168
▁abajyanama	-10169
▁umudendezo	-10170
cs	-10171
dam	-10172
inde	-10173
abaha	-10174
ngamo	-10175
▁buha	-10176
gereka	-10177
guriwe	-10178
shinge	-10179
amaboko	-10180
▁Nshuti	-10181
▁yagira	-10182
ibirunga	-10183
komokaga	-10184
vanganzo	-10185
▁urusaku	-10186
Abayahudi	-10187
▁bateguye	-10188
epfo	-10189
▁Ejo	-10190
ronko	-10191
murika	-10192
riraga	-10193
subize	-10194
▁MINIS	-10195
▁ipeti	-10196
meranya	-10197
▁Kizito	-10198
▁kugena	-10199
▁alubumu	-10200
▁byuzuye	-10201
▁Callixte	-10202
▁bakoreye	-10203
▁Inyandiko	-10204
shyingiranywe	-10205
ralia	-10206
▁Fili	-10207
gurika	-10208
▁Nyami	-10209
▁Nyange	-10210
▁wabaga	-10211
▁wahuje	-10212
yemerera	-10213
▁amakara	-10214
▁bahungu	-10215
▁bisabwa	-10216
▁bugomba	-10217
▁witabiriwe	-10218
▁Birashoboka	-10219
SF	-10220
▁Que	-10221
bigwi	-10222
▁Magu	-10223
sivile	-10224
▁Beteli	-10225
ubuhanga	-10226
▁Akenshi	-10227
▁byugarije	-10228
▁kidasanzwe	-10229
▁Kim	-10230
gwiza	-10231
▁mata	-10232
▁ibera	-10233
▁ingoro	-10234
▁ihagaze	-10235
amatsinda	-10236
▁byatumaga	-10237
busa	-10238
latini	-10239
burirwa	-10240
ririmba	-10241
torerwa	-10242
▁kanini	-10243
▁nkongi	-10244
▁Umutoni	-10245
▁agatoki	-10246
▁ategeka	-10247
▁urutoki	-10248
▁ikubiyemo	-10249
▁abakandida	-10250
▁izatangira	-10251
une	-10252
fero	-10253
higi	-10254
ringi	-10255
▁Ibyi	-10256
▁Mona	-10257
▁Mugabe	-10258
▁divayi	-10259
▁inyota	-10260
▁Gakwaya	-10261
▁agahigo	-10262
iperereza	-10263
▁bishanga	-10264
▁kwibanda	-10265
▁yakiniye	-10266
▁zatanzwe	-10267
▁bashishika	-10268
▁kugaburira	-10269
KE	-10270
hogo	-10271
kero	-10272
gence	-10273
▁Didier	-10274
abimukira	-10275
▁malariya	-10276
▁Christine	-10277
▁gukundana	-10278
BO	-10279
▁gaz	-10280
yunga	-10281
zajya	-10282
▁Buka	-10283
byimba	-10284
rebere	-10285
▁André	-10286
Abarabu	-10287
yumvamo	-10288
▁Shyaka	-10289
▁aboneka	-10290
Umudugudu	-10291
▁Karangwa	-10292
▁bikubiye	-10293
▁igihingwa	-10294
TV	-10295
▁nte	-10296
twali	-10297
▁tugi	-10298
Kubera	-10299
▁cyaje	-10300
cumenta	-10301
intumwa	-10302
▁bakore	-10303
▁bifata	-10304
▁urundi	-10305
▁wahise	-10306
chu	-10307
cul	-10308
AGRI	-10309
caru	-10310
ines	-10311
▁RGB	-10312
lympi	-10313
▁Kina	-10314
▁base	-10315
▁icye	-10316
▁Super	-10317
fficial	-10318
suzumye	-10319
▁Imvura	-10320
▁Madaga	-10321
▁Vision	-10322
▁butayu	-10323
▁komini	-10324
babarira	-10325
▁Cycling	-10326
▁Juvenal	-10327
▁dukunda	-10328
▁kutumva	-10329
▁bafatiwe	-10330
▁wayoboye	-10331
▁yerekeje	-10332
▁abadepite	-10333
▁dukoresha	-10334
▁bisobanurwa	-10335
kumva	-10336
rebwe	-10337
▁Mexi	-10338
▁yawu	-10339
hurura	-10340
kiramo	-10341
rusheho	-10342
▁ndumva	-10343
teraniye	-10344
▁Cyanika	-10345
▁ituruka	-10346
▁bwumvikane	-10347
fiya	-10348
mbure	-10349
ndura	-10350
▁ruto	-10351
Ubundi	-10352
▁Natwe	-10353
gurutse	-10354
▁Anasta	-10355
▁ukuboko	-10356
▁gukosora	-10357
▁Washington	-10358
tis	-10359
boho	-10360
mora	-10361
tang	-10362
▁Ise	-10363
▁ryiza	-10364
▁rinini	-10365
▁bworozi	-10366
▁kwegereza	-10367
▁byagezweho	-10368
▁hakiyongeraho	-10369
RDB	-10370
mano	-10371
▁pla	-10372
shoza	-10373
▁bigu	-10374
▁Chris	-10375
garikwa	-10376
▁Michel	-10377
▁Rukara	-10378
▁gifasha	-10379
▁rugomba	-10380
▁rwinshi	-10381
▁agerageza	-10382
▁igishushanyo	-10383
gimbi	-10384
rinto	-10385
▁utwa	-10386
byanga	-10387
nganye	-10388
▁ngaho	-10389
▁icumbi	-10390
▁nkunda	-10391
▁wavuye	-10392
mimerere	-10393
▁Imirimo	-10394
▁banyuze	-10395
▁bukwiye	-10396
▁umusozi	-10397
shamibare	-10398
▁kuzigama	-10399
▁guhererekanya	-10400
▁gari	-10401
shwati	-10402
▁ugana	-10403
▁Matayo	-10404
herekeza	-10405
▁bavutse	-10406
▁gutinda	-10407
▁Philippe	-10408
▁byemezwa	-10409
▁Abasenateri	-10410
▁Pri	-10411
▁Sul	-10412
▁Umwi	-10413
▁tundi	-10414
▁cyiswe	-10415
▁ikunze	-10416
▁Indwara	-10417
▁Rutshuru	-10418
▁biruhuko	-10419
▁Majyaruguru	-10420
▁byifashishwa	-10421
▁Byu	-10422
aniro	-10423
wumva	-10424
▁nigi	-10425
▁papa	-10426
▁Bitewe	-10427
shyizemo	-10428
▁kigizwe	-10429
geragezwa	-10430
▁Busuwisi	-10431
▁bategura	-10432
▁ingurane	-10433
▁dukwiriye	-10434
EFA	-10435
ant	-10436
rasa	-10437
shop	-10438
▁Art	-10439
▁Sake	-10440
rombya	-10441
sanduku	-10442
▁bugira	-10443
▁Tuyisenge	-10444
▁bakomeretse	-10445
▁PSG	-10446
yuzwe	-10447
zalen	-10448
hatira	-10449
singye	-10450
▁ibita	-10451
sanzuye	-10452
▁Munich	-10453
▁rigiye	-10454
byaranye	-10455
▁Murenzi	-10456
▁ikorana	-10457
▁bagezeho	-10458
▁biragoye	-10459
▁kapiteni	-10460
▁yabajije	-10461
▁batangaza	-10462
▁abacamanza	-10463
▁rugaragaza	-10464
CS	-10465
ers	-10466
▁Sil	-10467
ryohe	-10468
▁gutega	-10469
▁Kapiteni	-10470
▁yategetse	-10471
buje	-10472
mpeke	-10473
▁Dona	-10474
▁wange	-10475
intwaro	-10476
▁Bamaze	-10477
▁utwite	-10478
▁yemewe	-10479
igikorwa	-10480
mfashije	-10481
rokokeye	-10482
▁ibyatsi	-10483
▁injyana	-10484
▁Ubutumwa	-10485
▁cyahariwe	-10486
▁kuzenguruka	-10487
EB	-10488
stra	-10489
cisse	-10490
torwa	-10491
▁rizwi	-10492
inkunga	-10493
▁ziriya	-10494
▁ivuriro	-10495
▁koherezwa	-10496
▁),	-10497
ANTE	-10498
bingi	-10499
▁RURA	-10500
▁Ruti	-10501
▁Music	-10502
▁mbone	-10503
▁yatumi	-10504
perezida	-10505
▁kwimuka	-10506
▁bidafite	-10507
▁ikibanza	-10508
▁azakomeza	-10509
▁Rwisumbuye	-10510
BI	-10511
▁AM	-10512
énégal	-10513
▁abura	-10514
zalendo	-10515
▁bishyura	-10516
▁yabahaye	-10517
abahagarariye	-10518
rurishamibare	-10519
▁Anne	-10520
Inkiko	-10521
teraga	-10522
cishije	-10523
▁imvune	-10524
▁isanga	-10525
▁Malaria	-10526
▁ihagije	-10527
▁Karekezi	-10528
buranishwa	-10529
▁Umudugudu	-10530
kemurampaka	-10531
▁bifashisha	-10532
▁byiyongera	-10533
main	-10534
vaho	-10535
▁Indo	-10536
▁bunini	-10537
▁Abakobwa	-10538
▁bujyanye	-10539
▁igihumbi	-10540
burg	-10541
lina	-10542
cyiru	-10543
▁Rero	-10544
▁hita	-10545
hagera	-10546
kundwa	-10547
▁rugiye	-10548
▁batwaye	-10549
▁udukoko	-10550
▁yitwara	-10551
zibacyuho	-10552
▁bakareba	-10553
▁wafashwe	-10554
▁amavuriro	-10555
LG	-10556
NA	-10557
ud	-10558
sis	-10559
▁aze	-10560
kanka	-10561
▁guke	-10562
▁Adamu	-10563
Ihuriro	-10564
gerejwe	-10565
▁Bayern	-10566
▁Hoteli	-10567
▁Virusi	-10568
▁byumba	-10569
▁intama	-10570
▁kubamo	-10571
▁mikoro	-10572
▁Village	-10573
umuvuduko	-10574
▁Gishwati	-10575
▁umukiriya	-10576
▁zikurikira	-10577
▁DJ	-10578
hemu	-10579
wani	-10580
mbane	-10581
mwica	-10582
gorofa	-10583
amavuta	-10584
uwahoze	-10585
▁ukumva	-10586
abarwayi	-10587
imitungo	-10588
▁Abatuye	-10589
▁batinya	-10590
▁uburere	-10591
▁kizabera	-10592
▁byihutirwa	-10593
▁kandidatire	-10594
GAN	-10595
▁Cé	-10596
kinwe	-10597
▁Kani	-10598
cyafite	-10599
▁Gatera	-10600
▁Irembo	-10601
▁bijyana	-10602
▁atarenze	-10603
shyiriraho	-10604
tuntu	-10605
▁Gasa	-10606
tirira	-10607
▁Muhazi	-10608
▁Mukaba	-10609
▁bamara	-10610
▁habura	-10611
▁ruguru	-10612
▁Abafite	-10613
▁Kimenyi	-10614
▁idafite	-10615
▁Marathon	-10616
▁igitambo	-10617
▁yaganiriye	-10618
▁Ako	-10619
bungabu	-10620
▁murika	-10621
▁zigize	-10622
ifaranga	-10623
▁ahazaza	-10624
▁byarangiye	-10625
▁cyanecyane	-10626
biro	-10627
teyo	-10628
▁Bio	-10629
anira	-10630
dence	-10631
▁Baba	-10632
herewe	-10633
incuke	-10634
ngerewe	-10635
zimpaka	-10636
▁asimbu	-10637
▁baruwa	-10638
▁magufi	-10639
▁bifatwa	-10640
▁hakozwe	-10641
▁bashatse	-10642
▁uburakari	-10643
▁batarengeje	-10644
FAR	-10645
ita	-10646
éra	-10647
imvu	-10648
inkuru	-10649
▁kwiye	-10650
giranwa	-10651
nganiza	-10652
▁gahoro	-10653
▁shyaka	-10654
▁yaciye	-10655
▁amatike	-10656
▁urujijo	-10657
▁gukurura	-10658
▁cyatanzwe	-10659
tto	-10660
fuzwa	-10661
gement	-10662
ingeri	-10663
▁impfu	-10664
▁mwebwe	-10665
imigabane	-10666
▁abanyama	-10667
▁bahamaga	-10668
▁dukomeza	-10669
▁kwibutsa	-10670
sebe	-10671
▁Sal	-10672
entine	-10673
icyaro	-10674
kanira	-10675
▁bemeye	-10676
▁umugezi	-10677
sesenguzi	-10678
koreshwaga	-10679
▁inyuranye	-10680
▁telephone	-10681
PC	-10682
▁Cô	-10683
▁mvu	-10684
▁Luka	-10685
vugwaga	-10686
▁ahazwi	-10687
▁arapfa	-10688
▁muriro	-10689
▁pulasi	-10690
▁tukabi	-10691
shobotse	-10692
▁anavuga	-10693
▁abarirwa	-10694
▁bigishwa	-10695
▁mpimbano	-10696
▁isesengura	-10697
Rtd	-10698
dji	-10699
sazi	-10700
▁Ngu	-10701
▁Tur	-10702
▁naje	-10703
▁mutoza	-10704
▁Imodoka	-10705
▁ahitamo	-10706
▁impyiko	-10707
▁yibanda	-10708
ibihingwa	-10709
▁akwiriye	-10710
▁yabikoze	-10711
▁bazahabwa	-10712
imikoreshereze	-10713
biya	-10714
yomo	-10715
▁Kibo	-10716
kinike	-10717
funguzo	-10718
yampeke	-10719
▁ingeso	-10720
▁kuvoma	-10721
carubozo	-10722
▁myigire	-10723
▁uhoraho	-10724
▁Kayibanda	-10725
yandikishije	-10726
ubukangurambaga	-10727
lis	-10728
heri	-10729
▁Inda	-10730
▁Niwe	-10731
▁RSSB	-10732
▁mane	-10733
vanywe	-10734
▁naryo	-10735
▁Mujawa	-10736
zererezi	-10737
▁izakina	-10738
▁ubugome	-10739
irushanwa	-10740
menyesheje	-10741
amacakubiri	-10742
bonezamvugo	-10743
kurikiranya	-10744
▁birometero	-10745
▁rishyiraho	-10746
indangagaciro	-10747
riti	-10748
rusa	-10749
zine	-10750
▁usa	-10751
▁mumi	-10752
ruhuka	-10753
▁Denis	-10754
▁ahawe	-10755
▁bikan	-10756
▁cyawe	-10757
▁twamu	-10758
gamijwe	-10759
rangire	-10760
▁Labora	-10761
▁ambwira	-10762
▁dutanga	-10763
▁umuyaga	-10764
hagarikwa	-10765
▁yagombye	-10766
▁Australia	-10767
▁ingirakamaro	-10768
ECA	-10769
siti	-10770
mbert	-10771
rinka	-10772
tumire	-10773
zukuru	-10774
▁Trans	-10775
▁ijosi	-10776
ibiyaga	-10777
▁kuvuka	-10778
icyizere	-10779
▁Gikondo	-10780
▁kubyina	-10781
izabukuru	-10782
▁Nsanzimana	-10783
▁ryisumbuye	-10784
▁gushyingirwa	-10785
▁Abanyamuryango	-10786
oze	-10787
biza	-10788
gomwa	-10789
kirwe	-10790
▁Fami	-10791
▁Rube	-10792
▁bamubwira	-10793
▁amasegonda	-10794
▁bwatangaje	-10795
▁Abasirikare	-10796
▁kwiyamamariza	-10797
umz	-10798
▁fe	-10799
rande	-10800
▁zizi	-10801
▁byawe	-10802
▁Domini	-10803
▁babura	-10804
▁kabuza	-10805
▁zitera	-10806
▁bigoranye	-10807
▁ibirindiro	-10808
▁Abitabiriye	-10809
▁biteganijwe	-10810
▁binyuranyije	-10811
▁=	-10812
ICA	-10813
gemwe	-10814
ryozwa	-10815
▁ntidu	-10816
▁kugaba	-10817
▁yigaga	-10818
abakunzi	-10819
kemurira	-10820
▁barenze	-10821
▁Timoteyo	-10822
▁gukaraba	-10823
▁ryigisha	-10824
indahemuka	-10825
▁aramusubiza	-10826
nja	-10827
rwi	-10828
gufa	-10829
▁Clo	-10830
somwa	-10831
venue	-10832
anisha	-10833
▁Nkuko	-10834
▁Nzeli	-10835
vugisha	-10836
▁afunzwe	-10837
▁umurima	-10838
▁yitwaga	-10839
▁bafashwa	-10840
nnye	-10841
▁Cor	-10842
▁Uza	-10843
jimye	-10844
sindi	-10845
▁ataha	-10846
▁kuvurwa	-10847
▁tugenda	-10848
▁twinshi	-10849
▁umurage	-10850
▁Celestin	-10851
▁Ubufaransa	-10852
▁Qu	-10853
Miss	-10854
▁Ado	-10855
▁Edu	-10856
mbutsa	-10857
ibitero	-10858
▁yitaba	-10859
▁Cameroon	-10860
▁imihango	-10861
▁yohereza	-10862
▁amadolari	-10863
kurikiranweho	-10864
▁BI	-10865
dele	-10866
▁ike	-10867
logne	-10868
shege	-10869
ingoma	-10870
vangwa	-10871
▁[...]	-10872
▁ukaza	-10873
umwanda	-10874
▁duhura	-10875
▁ibanza	-10876
▁Kacyiru	-10877
ibijyanye	-10878
▁guhakana	-10879
▁baturanyi	-10880
▁ugaragaza	-10881
▁Igifaransa	-10882
tus	-10883
▁ani	-10884
gabye	-10885
hanze	-10886
▁waha	-10887
▁rwuba	-10888
▁ufata	-10889
▁zitara	-10890
dagadura	-10891
▁Ntarama	-10892
▁Tunisia	-10893
▁yamuhaye	-10894
▁bigezweho	-10895
▁byaturutse	-10896
non	-10897
amenyo	-10898
▁bwaho	-10899
▁Sitade	-10900
▁Sunrise	-10901
▁aturutse	-10902
▁urangira	-10903
hamagarira	-10904
▁bakirinda	-10905
fatanyacyaha	-10906
▁kubangamira	-10907
La	-10908
Ngo	-10909
gie	-10910
▁ex	-10911
imwa	-10912
muzi	-10913
turi	-10914
vuna	-10915
▁waru	-10916
Uretse	-10917
humeka	-10918
▁iciri	-10919
ibumoso	-10920
▁Hariho	-10921
▁akandi	-10922
▁minini	-10923
▁turabi	-10924
▁zamaze	-10925
▁Uburezi	-10926
▁watumye	-10927
▁zikwiye	-10928
wuzuzanye	-10929
▁byafashwe	-10930
▁ubujurire	-10931
toma	-10932
▁baca	-10933
gereko	-10934
yunamo	-10935
▁ntaza	-10936
inkongi	-10937
▁bishyu	-10938
▁manini	-10939
sosiyete	-10940
▁Ingaruka	-10941
▁guhamaga	-10942
▁ibirebana	-10943
▁zigaragara	-10944
dé	-10945
▁IR	-10946
ESCO	-10947
publi	-10948
ubira	-10949
▁Akaba	-10950
▁Platn	-10951
▁Polly	-10952
▁kundi	-10953
▁bamuha	-10954
▁yasoje	-10955
taramira	-10956
▁twatangiye	-10957
▁icyongereza	-10958
.,	-10959
▁FM	-10960
abaza	-10961
gereje	-10962
▁bucye	-10963
▁uhari	-10964
▁Eugene	-10965
▁rwitwa	-10966
▁Umuhoza	-10967
Ubujurire	-10968
▁umupolisi	-10969
▁wiyongera	-10970
Ne	-10971
spa	-10972
èle	-10973
sumo	-10974
▁Wal	-10975
kamba	-10976
kiriho	-10977
tanywe	-10978
▁bipimo	-10979
▁guhaha	-10980
▁mipaka	-10981
▁Kazungu	-10982
▁mibonano	-10983
▁yifuzaga	-10984
▁Umusigiti	-10985
▁zitandura	-10986
▁munyeshuri	-10987
ISH	-10988
Yes	-10989
kama	-10990
ruwe	-10991
abami	-10992
▁aran	-10993
▁ubun	-10994
tashye	-10995
▁mwami	-10996
kundira	-10997
jugunywe	-10998
mukarasi	-10999
▁numvise	-11000
▁rwavuze	-11001
▁yazanye	-11002
▁Knowless	-11003
▁imirenge	-11004
▁cyongereza	-11005
▁Umunyeshuri	-11006
her	-11007
sie	-11008
phine	-11009
tsura	-11010
▁Imbo	-11011
▁Kuwa	-11012
▁gisa	-11013
▁Bwiza	-11014
▁Mande	-11015
▁ntago	-11016
▁biciro	-11017
ishyamba	-11018
▁nkokora	-11019
▁rwabaye	-11020
▁ukagera	-11021
▁yangiza	-11022
▁igezweho	-11023
▁isosiyete	-11024
▁Convention	-11025
▁Sebuharara	-11026
▁ababwiriza	-11027
▁cyatsinzwe	-11028
pine	-11029
bakwa	-11030
koman	-11031
▁gore	-11032
▁kube	-11033
▁zabyo	-11034
▁akunze	-11035
▁yataye	-11036
Ibirunga	-11037
▁Sylidio	-11038
▁Claudine	-11039
▁Ndayisaba	-11040
Ibidukikije	-11041
▁Twagirayezu	-11042
APR	-11043
Abe	-11044
lar	-11045
toje	-11046
bweho	-11047
donke	-11048
▁Baza	-11049
▁abiga	-11050
queline	-11051
▁Busingye	-11052
▁wavukiye	-11053
▁Centrafri	-11054
▁birindiro	-11055
▁isobanura	-11056
▁iciriritse	-11057
▁ikwirakwira	-11058
Buri	-11059
jyaho	-11060
▁inya	-11061
rekura	-11062
▁abaya	-11063
▁cyera	-11064
▁Rutare	-11065
andurira	-11066
suzumisha	-11067
▁Ubuhinzi	-11068
▁ihumanya	-11069
▁ubutunzi	-11070
▁kwibohora	-11071
lange	-11072
ngura	-11073
vurwa	-11074
yonga	-11075
▁tanu	-11076
▁ryacu	-11077
Ubushinwa	-11078
▁Daniyeli	-11079
▁igwingira	-11080
▁kwirukanwa	-11081
shishikarije	-11082
▁Mushikiwabo	-11083
▁nd	-11084
▁Rwan	-11085
▁Lambert	-11086
▁ibendera	-11087
▁Institute	-11088
▁mubikorwa	-11089
Igenamigambi	-11090
▁Ubwongereza	-11091
▁gutandukanya	-11092
▁ibinyabuzima	-11093
IJ	-11094
igiti	-11095
▁bwamu	-11096
▁cyita	-11097
▁ndabi	-11098
inkingo	-11099
▁bemeje	-11100
▁kurira	-11101
▁Cyakora	-11102
▁tuzajya	-11103
imiturire	-11104
▁Anastase	-11105
▁gihingwa	-11106
cumentaire	-11107
ihungabana	-11108
▁Cristiano	-11109
▁kunanirwa	-11110
▁mpungenge	-11111
▁biyobyabwenge	-11112
TB	-11113
nak	-11114
sohowe	-11115
▁Ibintu	-11116
ubutwari	-11117
▁abakene	-11118
Abayobozi	-11119
▁mituweli	-11120
▁yitegura	-11121
▁yohereje	-11122
yubahiriza	-11123
▁guhangayi	-11124
▁rigezweho	-11125
▁amajyambere	-11126
Li	-11127
cène	-11128
dame	-11129
ports	-11130
sinye	-11131
sojwe	-11132
ubumuga	-11133
inyigisho	-11134
zengurutse	-11135
▁igihembwe	-11136
▁yababwiye	-11137
▁iyubahirizwa	-11138
Ti	-11139
ASS	-11140
chni	-11141
mail	-11142
tako	-11143
▁Dor	-11144
▁ube	-11145
ranywe	-11146
▁Sylve	-11147
hungira	-11148
kemutse	-11149
▁gucana	-11150
▁kirego	-11151
▁nshuti	-11152
▁urwaye	-11153
garuriye	-11154
▁Norbert	-11155
▁Sénégal	-11156
▁gutorwa	-11157
menyereye	-11158
▁Serivisi	-11159
▁Valentine	-11160
▁barangiza	-11161
▁bashyizeho	-11162
pamyabumenyi	-11163
lls	-11164
runi	-11165
fique	-11166
shari	-11167
▁UEFA	-11168
▁yoro	-11169
marira	-11170
▁akaru	-11171
▁araza	-11172
▁ibuye	-11173
▁bugera	-11174
▁ryinshi	-11175
shimangirwa	-11176
ubuziranenge	-11177
▁bikarangira	-11178
dor	-11179
upe	-11180
▁iye	-11181
▁kacu	-11182
▁kiti	-11183
Dufite	-11184
▁zitwa	-11185
twereka	-11186
▁abatoza	-11187
▁byavuye	-11188
▁zizajya	-11189
shingiraho	-11190
▁Ministeri	-11191
▁abitangaza	-11192
▁kwigaragaza	-11193
SHA	-11194
piri	-11195
▁iwa	-11196
Africa	-11197
ibwami	-11198
▁ivuye	-11199
▁bagere	-11200
▁bahaye	-11201
▁barara	-11202
▁utwaye	-11203
official	-11204
▁bagasaba	-11205
▁ikirenge	-11206
▁inyongera	-11207
▁kwigishwa	-11208
ice	-11209
▁Mul	-11210
▁Poro	-11211
▁kopi	-11212
ijambo	-11213
▁ikiza	-11214
▁dufata	-11215
humekero	-11216
kiniraga	-11217
▁Jackson	-11218
▁ibarura	-11219
▁dukomeze	-11220
▁ikoraniro	-11221
▁zirwanira	-11222
▁guhaguruka	-11223
OM	-11224
▁FA	-11225
baze	-11226
ella	-11227
▁Boy	-11228
▁Rwo	-11229
manga	-11230
sorwa	-11231
▁Beni	-11232
kubaka	-11233
tumizwa	-11234
gishijwe	-11235
▁Solange	-11236
▁ahahoze	-11237
▁bwavuze	-11238
▁umuhate	-11239
▁uturuka	-11240
▁amabanki	-11241
▁zihariye	-11242
▁bwatangiye	-11243
▁bakoreshaga	-11244
inte	-11245
pilo	-11246
WANDA	-11247
habwe	-11248
▁Yego	-11249
▁kubyo	-11250
amahame	-11251
▁nakoze	-11252
▁hubatswe	-11253
▁bagatanga	-11254
▁gutegurwa	-11255
▁kurimbura	-11256
▁umudugudu	-11257
SI	-11258
Dore	-11259
gobo	-11260
anuro	-11261
▁Azwi	-11262
▁dutu	-11263
hembwe	-11264
namira	-11265
▁Amazi	-11266
suzumwe	-11267
▁Radiyo	-11268
▁karimo	-11269
▁bugenda	-11270
▁tubonye	-11271
▁Platnumz	-11272
▁yoherezwa	-11273
ah	-11274
▁Rou	-11275
aniye	-11276
▁Côte	-11277
▁Yobu	-11278
▁Yona	-11279
imijyi	-11280
▁ntazi	-11281
▁basiga	-11282
▁kubiba	-11283
▁rugeze	-11284
▁yeguye	-11285
▁kumwica	-11286
▁abatwara	-11287
▁barwanyi	-11288
Heb	-11289
▁BAL	-11290
yutse	-11291
▁Bati	-11292
▁Amazu	-11293
▁South	-11294
▁ngeso	-11295
▁ryawe	-11296
mporiki	-11297
▁buriri	-11298
▁kugaru	-11299
▁iherezo	-11300
▁yasinyi	-11301
▁ibitsina	-11302
▁imvururu	-11303
▁kumubwira	-11304
ibimenyetso	-11305
interahamwe	-11306
▁milimetero	-11307
▁mpanabyaha	-11308
▁Abavandimwe	-11309
▁indangamuntu	-11310
Go	-11311
▁Emi	-11312
totsi	-11313
▁Ruha	-11314
▁Tuza	-11315
▁yubu	-11316
hitira	-11317
inzoka	-11318
kereza	-11319
▁Isaac	-11320
▁Nzaba	-11321
vuganye	-11322
▁Master	-11323
▁bibuka	-11324
amarenga	-11325
▁ipfunwe	-11326
▁yinjiza	-11327
gejejweho	-11328
▁Gitarama	-11329
▁disikuru	-11330
▁muvuduko	-11331
▁ukwiriye	-11332
▁zafashwe	-11333
▁bihumanya	-11334
▁Mutagatifu	-11335
▁bizakomeza	-11336
▁ubwiyongere	-11337
▁kwifashishwa	-11338
nk	-11339
uwi	-11340
dina	-11341
▁yiru	-11342
Ikibazo	-11343
kinisha	-11344
▁Gukora	-11345
▁Kanada	-11346
icyerekezo	-11347
dizo	-11348
haba	-11349
keri	-11350
▁Dre	-11351
▁twu	-11352
dette	-11353
gwaga	-11354
▁ntiru	-11355
▁wacyo	-11356
▁yabyi	-11357
abavuga	-11358
sabwaga	-11359
▁Mahama	-11360
▁buhari	-11361
▁Twizeye	-11362
▁bazanye	-11363
▁gushira	-11364
▁bashinze	-11365
▁byagenda	-11366
▁ububabare	-11367
at	-11368
▁PSD	-11369
▁tuya	-11370
▁Young	-11371
ubwonko	-11372
▁bimera	-11373
garugori	-11374
▁Urubuga	-11375
▁gusezera	-11376
▁ihinduka	-11377
▁Wazalendo	-11378
▁guhungira	-11379
▁wagombaga	-11380
▁itandukaniro	-11381
ps	-11382
amon	-11383
stem	-11384
▁Ham	-11385
ryama	-11386
shywa	-11387
sizwe	-11388
▁Shyo	-11389
▁bije	-11390
▁nizo	-11391
sitara	-11392
▁mwuka	-11393
▁habaga	-11394
▁kiguzi	-11395
▁yagera	-11396
ubucukuzi	-11397
▁bayobora	-11398
▁kimenyetso	-11399
▁bidashoboka	-11400
Arc	-11401
▁Bou	-11402
amonb	-11403
imbwa	-11404
panga	-11405
▁REMA	-11406
Ukuboza	-11407
byibuho	-11408
yambaje	-11409
▁iyoboye	-11410
▁kugirwa	-11411
▁wabonye	-11412
▁yageraga	-11413
▁badakwiye	-11414
▁bwatanzwe	-11415
▁gukurikira	-11416
▁kwipimisha	-11417
▁ubwikorezi	-11418
No	-11419
kaga	-11420
mber	-11421
ziri	-11422
▁aro	-11423
▁yimu	-11424
Intang	-11425
andiko	-11426
▁Moise	-11427
▁itaza	-11428
▁kwibu	-11429
itariki	-11430
▁Bageze	-11431
▁atwara	-11432
abazungu	-11433
▁Science	-11434
▁mboneza	-11435
▁Tuniziya	-11436
▁abafasha	-11437
▁bayobowe	-11438
▁micungire	-11439
shingirwaho	-11440
▁tuzakomeza	-11441
Ikinyamakuru	-11442
yogo	-11443
Kenya	-11444
sipan	-11445
▁Manzi	-11446
▁utazi	-11447
Abakozi	-11448
▁wishwe	-11449
▁abatari	-11450
▁akorana	-11451
▁yasimbu	-11452
▁kiliziya	-11453
▁ubwinshi	-11454
▁gufungurwa	-11455
ubuda	-11456
▁riki	-11457
▁azana	-11458
▁byatu	-11459
kwemera	-11460
rezidan	-11461
▁Muhima	-11462
▁wageze	-11463
herekeje	-11464
▁yasabwe	-11465
▁Kayitare	-11466
▁abaregwa	-11467
▁bwatumye	-11468
▁dukorana	-11469
rangiritse	-11470
▁Indirimbo	-11471
▁isengesho	-11472
▁AD	-11473
▁as	-11474
dres	-11475
▁Ibin	-11476
▁Ibra	-11477
▁Paci	-11478
koramo	-11479
▁Commi	-11480
▁banye	-11481
▁London	-11482
▁mbumbe	-11483
▁Amagambo	-11484
▁Kompanyi	-11485
▁uburambe	-11486
▁Umuhuzabikorwa	-11487
▁%	-11488
IRI	-11489
Kuwa	-11490
tamo	-11491
▁Jor	-11492
nzego	-11493
pimwa	-11494
▁Colo	-11495
bazaga	-11496
▁Meddy	-11497
akagari	-11498
hindiro	-11499
▁Kuboza	-11500
▁gutuza	-11501
▁imibanire	-11502
▁utekereza	-11503
▁gukomeretsa	-11504
▁bashyigikiye	-11505
das	-11506
gna	-11507
ila	-11508
isha	-11509
sanwa	-11510
▁gaze	-11511
baruwa	-11512
▁Uwera	-11513
▁abacu	-11514
goranye	-11515
▁gitaha	-11516
▁kitara	-11517
irangiza	-11518
sambanya	-11519
▁abacitse	-11520
▁mavuriro	-11521
▁ziboneka	-11522
▁serukiramuco	-11523
gisi	-11524
tijwe	-11525
▁akin	-11526
▁mure	-11527
▁yera	-11528
▁yimi	-11529
impano	-11530
▁arizo	-11531
▁mpaka	-11532
▁buruse	-11533
▁korora	-11534
▁uheruka	-11535
▁aririmba	-11536
▁guhirika	-11537
▁guhitana	-11538
▁hatangwa	-11539
▁irangiye	-11540
▁kurekurwa	-11541
nji	-11542
▁cou	-11543
▁Pame	-11544
▁ariya	-11545
▁mucye	-11546
▁banywa	-11547
▁Umwarimu	-11548
▁Urutonde	-11549
▁wabigize	-11550
ibyamamare	-11551
▁Abapolisi	-11552
▁agakomeza	-11553
▁ashyiraho	-11554
▁ibikenewe	-11555
▁igerageza	-11556
▁kwiringira	-11557
abashoramari	-11558
▁kuburanishwa	-11559
▁kwitwararika	-11560
nin	-11561
teo	-11562
jeni	-11563
▁Men	-11564
tudio	-11565
▁zaje	-11566
subiri	-11567
▁Jimmy	-11568
▁byubu	-11569
cungira	-11570
yamaswa	-11571
▁Karate	-11572
▁Zambiya	-11573
▁byageze	-11574
▁imizigo	-11575
▁kuhagera	-11576
▁bibumbiye	-11577
▁Jacqueline	-11578
▁Centrafrique	-11579
RO	-11580
gos	-11581
▁».	-11582
kuka	-11583
▁abatu	-11584
fashaga	-11585
▁giteye	-11586
▁kuranga	-11587
▁kwihaza	-11588
Amategeko	-11589
gambiriye	-11590
▁imigambi	-11591
▁abatangabuhamya	-11592
VC	-11593
▁Eng	-11594
▁Ingo	-11595
riwemo	-11596
▁Album	-11597
▁hepfo	-11598
yubakwa	-11599
mikurire	-11600
▁Muvunyi	-11601
▁bakagera	-11602
▁bucukuzi	-11603
▁guhumeka	-11604
▁njyanama	-11605
▁byerekeranye	-11606
Icyi	-11607
gaye	-11608
raka	-11609
▁MUK	-11610
▁ifi	-11611
▁Fede	-11612
▁niki	-11613
pfundi	-11614
▁Umuco	-11615
shubije	-11616
▁agirwa	-11617
▁bahera	-11618
▁bigari	-11619
▁nomero	-11620
▁Muganza	-11621
▁zihabwa	-11622
misiyoneri	-11623
▁kwiyahura	-11624
▁Ngendahimana	-11625
▁bakurikirana	-11626
reti	-11627
trea	-11628
korwe	-11629
▁Serge	-11630
▁akura	-11631
▁narwo	-11632
ibitego	-11633
kwereka	-11634
▁Buzima	-11635
▁atabasha	-11636
▁gusarura	-11637
▁yaramaze	-11638
▁yibasiye	-11639
▁arambwira	-11640
▁bahungira	-11641
▁umwambaro	-11642
▁yahinduye	-11643
ghan	-11644
▁FLN	-11645
rumasi	-11646
▁byuma	-11647
▁Alexand	-11648
▁Abahanga	-11649
▁itegurwa	-11650
Minisiteri	-11651
▁bizakorwa	-11652
▁yamubwiye	-11653
▁CND	-11654
genje	-11655
▁saba	-11656
gereki	-11657
sezera	-11658
tienne	-11659
▁shami	-11660
rirwaho	-11661
yambaza	-11662
▁Imyaka	-11663
▁lisiti	-11664
▁yiruka	-11665
hindurwa	-11666
▁akagari	-11667
▁uburozi	-11668
▁witabye	-11669
▁yibanze	-11670
▁Karasira	-11671
▁ashyirwa	-11672
▁kubabara	-11673
▁Kimironko	-11674
▁Ministiri	-11675
▁birushaho	-11676
▁bateraniye	-11677
▁gusezerana	-11678
▁yahindutse	-11679
ppo	-11680
▁Mc	-11681
▁RCA	-11682
ECAFA	-11683
amara	-11684
vénal	-11685
▁ziyi	-11686
▁Ngira	-11687
▁buzwi	-11688
Umugore	-11689
▁abyara	-11690
▁abarezi	-11691
▁bahunze	-11692
▁biyongera	-11693
▁ibyerekeye	-11694
▁ubushishozi	-11695
▁ac	-11696
foni	-11697
lique	-11698
tabye	-11699
hishwa	-11700
kiriro	-11701
▁ureba	-11702
umupaka	-11703
▁Mukamu	-11704
▁bubiko	-11705
▁ntwaro	-11706
▁yatuma	-11707
▁bazakora	-11708
▁matariki	-11709
tegarugori	-11710
▁muvandimwe	-11711
▁Abanyafurika	-11712
▁Vu	-11713
doda	-11714
▁Mutu	-11715
▁mito	-11716
▁wazo	-11717
injije	-11718
ricket	-11719
sangwa	-11720
▁cyuho	-11721
▁Komine	-11722
▁gitego	-11723
▁induru	-11724
▁yabona	-11725
▁yibuka	-11726
▁ahamaga	-11727
▁abangavu	-11728
▁habarurwa	-11729
▁guhohotera	-11730
▁umushyitsi	-11731
▁birashobora	-11732
▁AMA	-11733
ibura	-11734
intego	-11735
▁Abdul	-11736
▁amato	-11737
twaraga	-11738
▁bubiri	-11739
▁guteke	-11740
▁abatara	-11741
▁amadini	-11742
▁ububiko	-11743
▁wapfuye	-11744
▁bitegura	-11745
▁mibanire	-11746
Ugushyingo	-11747
▁bagarutse	-11748
▁turushaho	-11749
ikimenyetso	-11750
Al	-11751
lic	-11752
▁Kha	-11753
▁Ver	-11754
▁aca	-11755
moteri	-11756
girango	-11757
izamuka	-11758
thority	-11759
▁Ubwami	-11760
▁Yohani	-11761
▁yizeza	-11762
▁zahawe	-11763
rangizwa	-11764
tinganyi	-11765
▁Johnson	-11766
▁MINEDUC	-11767
▁Ndahiro	-11768
bangukira	-11769
▁bagaruka	-11770
▁kwicisha	-11771
▁rishyira	-11772
tangarijwe	-11773
plo	-11774
▁CIP	-11775
mocra	-11776
ceceka	-11777
▁irembo	-11778
▁Juvénal	-11779
▁abazize	-11780
▁ifitanye	-11781
▁zikomoka	-11782
▁bigabanya	-11783
▁umusifuzi	-11784
ux	-11785
▁Pho	-11786
▁yar	-11787
yinji	-11788
▁Cape	-11789
▁Tcha	-11790
Tariki	-11791
manama	-11792
▁byazo	-11793
▁itaba	-11794
amikoro	-11795
ruganda	-11796
ubudehe	-11797
▁Olympi	-11798
▁bagura	-11799
▁yateje	-11800
▁America	-11801
▁kubazwa	-11802
▁muhungu	-11803
▁Gushyingo	-11804
▁baturanye	-11805
▁Byukusenge	-11806
tele	-11807
fotora	-11808
shyuha	-11809
▁Black	-11810
▁abato	-11811
Urugaga	-11812
hindure	-11813
ibimera	-11814
▁kurara	-11815
Icyakora	-11816
Igikombe	-11817
abagenzi	-11818
▁umwijima	-11819
▁Dieudonné	-11820
▁yumvikana	-11821
▁imyidagaduro	-11822
▁Tes	-11823
▁Yoh	-11824
ikira	-11825
menwa	-11826
sinya	-11827
▁Camp	-11828
otball	-11829
shyano	-11830
zuyemo	-11831
urubuga	-11832
▁Gasore	-11833
▁bajyana	-11834
▁kugaban	-11835
imyumvire	-11836
▁bizamini	-11837
▁ushoboye	-11838
▁yagiraga	-11839
Igifaransa	-11840
▁bakoranye	-11841
▁bishinzwe	-11842
▁byakomeje	-11843
▁yafunguye	-11844
▁mikoranire	-11845
▁nkunganire	-11846
▁bifatanyije	-11847
MI	-11848
Mar	-11849
ihene	-11850
▁beme	-11851
Umunsi	-11852
rikiye	-11853
▁Bongo	-11854
▁batyo	-11855
▁utera	-11856
isukura	-11857
▁ubwami	-11858
▁bahamya	-11859
▁usigaye	-11860
▁cyateguwe	-11861
▁igishanga	-11862
kurikiranwe	-11863
▁gutangazwa	-11864
ALOC	-11865
▁Cho	-11866
rekwa	-11867
▁rugi	-11868
gorora	-11869
zabibu	-11870
▁Musha	-11871
▁ateye	-11872
▁azabi	-11873
▁ngeze	-11874
urumogi	-11875
▁bataki	-11876
herereje	-11877
ibyabaye	-11878
▁nibindi	-11879
▁ntibari	-11880
▁ryanjye	-11881
▁Félicien	-11882
▁aragenda	-11883
▁bakiriye	-11884
▁barasaba	-11885
▁byaranze	-11886
inzibacyuho	-11887
▁byiganjemo	-11888
▁kigaragara	-11889
▁bizabafasha	-11890
▁ryagaragaje	-11891
ICT	-11892
▁IP	-11893
onel	-11894
▁Fro	-11895
▁Oya	-11896
Nyaga	-11897
hanan	-11898
zwamo	-11899
▁muki	-11900
ikintu	-11901
jurira	-11902
tayeho	-11903
▁Ageze	-11904
▁Aroni	-11905
▁Ngara	-11906
amasasu	-11907
ranyama	-11908
▁bwonko	-11909
zzaville	-11910
▁Igitabo	-11911
▁Londres	-11912
▁bahembwa	-11913
▁Bamporiki	-11914
▁Rudahigwa	-11915
yigishirize	-11916
▁Umukandida	-11917
▁kumenyesha	-11918
▁shyirahamwe	-11919
▁ndangagaciro	-11920
Di	-11921
nzu	-11922
wabu	-11923
gunge	-11924
▁Marc	-11925
▁Yaje	-11926
kamere	-11927
▁umuzi	-11928
▁bariho	-11929
▁bavuka	-11930
▁yavaga	-11931
▁guhemba	-11932
rushijeho	-11933
▁Mukamana	-11934
abategetsi	-11935
▁itegamiye	-11936
EAC	-11937
fuli	-11938
sile	-11939
▁Aru	-11940
▁MDR	-11941
▁Yowe	-11942
▁ndamu	-11943
yandika	-11944
▁gutaka	-11945
▁inkota	-11946
ganiraho	-11947
teganyije	-11948
▁kwihisha	-11949
▁yarabaye	-11950
▁akurikira	-11951
▁icyatumye	-11952
▁twiteguye	-11953
▁MA	-11954
kolo	-11955
miza	-11956
▁Les	-11957
▁Mat	-11958
kubwa	-11959
ramba	-11960
▁Afro	-11961
▁Bigi	-11962
▁Boni	-11963
ubwami	-11964
▁akato	-11965
▁bwazo	-11966
abatari	-11967
gurirwa	-11968
mbitswe	-11969
singiza	-11970
▁bwenge	-11971
▁rushya	-11972
▁barinda	-11973
▁bikagira	-11974
▁ibitambo	-11975
▁rikomeje	-11976
▁baririmba	-11977
▁ryashyizwe	-11978
imitekerereze	-11979
ANG	-11980
vugi	-11981
▁Spe	-11982
Rayon	-11983
uters	-11984
▁misa	-11985
▁tutari	-11986
zerekana	-11987
▁kuribwa	-11988
▁kwifata	-11989
▁nyobozi	-11990
▁umugeni	-11991
▁rwatangaje	-11992
▁Ny	-11993
▁Hum	-11994
▁UKO	-11995
gogwe	-11996
kanjye	-11997
nimana	-11998
pilote	-11999
▁ikiba	-12000
byemeza	-12001
roherwa	-12002
tangiwe	-12003
ubutayu	-12004
▁Bukavu	-12005
▁adahari	-12006
▁umugozi	-12007
▁Majyepfo	-12008
▁bagirana	-12009
▁rukerera	-12010
▁wahariwe	-12011
ubwisungane	-12012
▁documentaire	-12013
▁gusobanurira	-12014
Izi	-12015
ose	-12016
▁Dj	-12017
HOGM	-12018
None	-12019
ghts	-12020
liza	-12021
▁Zan	-12022
hanye	-12023
bambwe	-12024
mbirwa	-12025
▁ineza	-12026
▁ntari	-12027
▁ufatwa	-12028
▁umenye	-12029
▁yihaye	-12030
umuganda	-12031
▁kwaguka	-12032
▁bitangwa	-12033
▁kubabwira	-12034
▁turashaka	-12035
▁yabasabye	-12036
▁Christopher	-12037
ARE	-12038
▁My	-12039
mbiwe	-12040
Intwari	-12041
▁bwanyu	-12042
subitswe	-12043
▁amarira	-12044
▁hafatwa	-12045
▁havugwa	-12046
subirwaho	-12047
▁bidatinze	-12048
sobanurirwa	-12049
▁yifatanyije	-12050
umunyamabanga	-12051
▁App	-12052
guzwe	-12053
lingi	-12054
▁gukiza	-12055
▁ntumwa	-12056
▁byanjye	-12057
▁harebwe	-12058
▁yinjije	-12059
▁bakorewe	-12060
▁yaragiye	-12061
▁cyerekana	-12062
▁cyihariye	-12063
▁dushoboye	-12064
os	-12065
▁Mel	-12066
nitse	-12067
tinye	-12068
▁aman	-12069
inkumi	-12070
▁Mwuka	-12071
▁yenda	-12072
ciation	-12073
conomic	-12074
▁Butaro	-12075
▁hatari	-12076
Ukwakira	-12077
▁Pologne	-12078
▁bahabwe	-12079
▁bishize	-12080
▁cyizere	-12081
▁guhisha	-12082
▁kwereka	-12083
amadorari	-12084
▁bayoboye	-12085
▁kurokoka	-12086
▁kuzahura	-12087
▁ubuhanzi	-12088
abajyanama	-12089
▁Authority	-12090
▁amakarita	-12091
ibinyabiziga	-12092
OT	-12093
GIRA	-12094
inja	-12095
kaje	-12096
lity	-12097
mark	-12098
nder	-12099
▁Kid	-12100
▁Win	-12101
Bwana	-12102
shoje	-12103
vision	-12104
▁Portu	-12105
▁agire	-12106
▁ryama	-12107
hishuwe	-12108
▁Safari	-12109
▁Kenyatta	-12110
▁Dushobora	-12111
▁Gahindiro	-12112
▁ishyirwaho	-12113
▁kinyarwanda	-12114
byan	-12115
roke	-12116
▁Fla	-12117
dutse	-12118
▁Life	-12119
▁Namu	-12120
▁TVET	-12121
▁hagi	-12122
buriye	-12123
hazaza	-12124
bujijwe	-12125
▁gihano	-12126
▁tugari	-12127
▁abereye	-12128
▁kizajya	-12129
rushimana	-12130
▁diyabete	-12131
▁gikomeje	-12132
▁ibirenge	-12133
▁zikorera	-12134
▁Mpayimana	-12135
▁tubikesha	-12136
▁Byiringiro	-12137
▁ntashobora	-12138
ami	-12139
▁lo	-12140
humu	-12141
bande	-12142
ranzi	-12143
▁Bamu	-12144
hwitse	-12145
yisire	-12146
igitero	-12147
ringiye	-12148
▁madini	-12149
▁Abarimu	-12150
▁ribanza	-12151
▁Kambanda	-12152
▁Abakorinto	-12153
▁Inshingano	-12154
UD	-12155
lus	-12156
hini	-12157
tanwa	-12158
▁INES	-12159
▁teri	-12160
tegure	-12161
surance	-12162
tondera	-12163
▁Maurice	-12164
▁abahoze	-12165
▁batungu	-12166
▁Mazimpaka	-12167
▁bakabasha	-12168
▁watangaje	-12169
▁irashobora	-12170
Pro	-12171
xel	-12172
’’.	-12173
▁Xa	-12174
Nari	-12175
▁Louis	-12176
▁ntaba	-12177
amahina	-12178
ryamana	-12179
ubujura	-12180
▁ikagira	-12181
▁shyamba	-12182
▁imyuzure	-12183
▁ibyakozwe	-12184
icyongereza	-12185
▁Umujyanama	-12186
BE	-12187
inal	-12188
ller	-12189
reho	-12190
ringa	-12191
▁Elie	-12192
▁Moni	-12193
banura	-12194
himbano	-12195
▁gukaza	-12196
▁rugira	-12197
abicanyi	-12198
kozasoni	-12199
▁akagera	-12200
▁bumvaga	-12201
▁kwegura	-12202
▁Kabarebe	-12203
▁Abarokotse	-12204
▁~	-12205
lor	-12206
org	-12207
▁Lé	-12208
funzo	-12209
▁Gare	-12210
burana	-12211
▁Jolly	-12212
▁Etoile	-12213
ganiraga	-12214
zamubano	-12215
▁ahakana	-12216
▁uwahoze	-12217
▁bishimye	-12218
▁Umwanzuro	-12219
▁igabanuka	-12220
bes	-12221
mire	-12222
▁Can	-12223
umuro	-12224
▁Film	-12225
▁Hano	-12226
▁Regi	-12227
▁rumu	-12228
shyirwe	-12229
twikira	-12230
▁Techno	-12231
▁avugwa	-12232
▁yarana	-12233
jugunywa	-12234
▁Namibia	-12235
▁ukomeza	-12236
gendekere	-12237
▁batashye	-12238
▁icuruzwa	-12239
▁rukomeje	-12240
▁Nyamabuye	-12241
▁tereviziyo	-12242
gn	-12243
▁Zel	-12244
▁Limi	-12245
shyami	-12246
▁ibicu	-12247
▁ntiki	-12248
▁kimeze	-12249
▁wabanje	-12250
▁Umuhungu	-12251
▁tekinike	-12252
▁wabonaga	-12253
▁yakomeza	-12254
tangarugero	-12255
▁Nyiragongo	-12256
▁bisobanuro	-12257
IV	-12258
iry	-12259
▁PL	-12260
▁cg	-12261
▁asi	-12262
▁com	-12263
▁Boys	-12264
Inzego	-12265
banaga	-12266
▁Media	-12267
▁avoka	-12268
▁izihe	-12269
▁umubu	-12270
gukunda	-12271
hesheje	-12272
kanyije	-12273
rangura	-12274
▁bisoza	-12275
▁ubonye	-12276
tegurira	-12277
▁abarimo	-12278
▁ifungwa	-12279
▁ikomoka	-12280
▁Damascène	-12281
▁byakorewe	-12282
Abasenateri	-12283
▁bunyuranye	-12284
▁yakoreraga	-12285
ense	-12286
ogra	-12287
roti	-12288
humyo	-12289
▁Kibi	-12290
▁rito	-12291
rizamo	-12292
▁Twese	-12293
▁CECAFA	-12294
▁Masaka	-12295
▁Yesaya	-12296
▁bisaga	-12297
yanditse	-12298
▁Uturere	-12299
▁babanye	-12300
▁ihoraho	-12301
akababaro	-12302
tangiraga	-12303
▁muremure	-12304
▁batangije	-12305
▁boherejwe	-12306
▁abakirisitu	-12307
wede	-12308
yumu	-12309
gerwa	-12310
▁Coun	-12311
▁Fabi	-12312
jyanwe	-12313
▁abami	-12314
▁Rikuru	-12315
mangingo	-12316
▁Umusore	-12317
▁kirenze	-12318
▁twahawe	-12319
kurambere	-12320
▁bazabona	-12321
▁yananiwe	-12322
▁gusimbura	-12323
▁kirimbuzi	-12324
ibirometero	-12325
▁ayisumbuye	-12326
nari	-12327
▁Yvan	-12328
▁inde	-12329
▁kibe	-12330
gemura	-12331
ibiryo	-12332
mazeyo	-12333
remeye	-12334
▁Argen	-12335
igikoni	-12336
▁Marine	-12337
▁urujya	-12338
▁yatowe	-12339
▁zabaga	-12340
▁ishyira	-12341
▁yavuzwe	-12342
▁yibutsa	-12343
▁wakoraga	-12344
▁amaterasi	-12345
▁byangombwa	-12346
▁cyarangiye	-12347
▁ibinyujije	-12348
▁rikoreshwa	-12349
▁birumvikana	-12350
▁kuvugururwa	-12351
▁Fu	-12352
dith	-12353
zayi	-12354
itanu	-12355
sesero	-12356
▁igana	-12357
igiciro	-12358
menyana	-12359
▁itungo	-12360
▁zuzuye	-12361
▁abagiye	-12362
toranyijwe	-12363
▁isezerano	-12364
▁Madagascar	-12365
▁kwishakamo	-12366
cungamutungo	-12367
▁banyamakuru	-12368
▁yatangiriye	-12369
PD	-12370
RBC	-12371
▁EU	-12372
▁Nou	-12373
abazi	-12374
Uganda	-12375
gereho	-12376
mugabo	-12377
Ishyaka	-12378
sabirwa	-12379
surutsa	-12380
ubutasi	-12381
▁nagize	-12382
▁Limited	-12383
▁twizeye	-12384
▁witwaye	-12385
▁Portugal	-12386
▁manegeka	-12387
▁migabane	-12388
▁ushingiye	-12389
umuvandimwe	-12390
▁Niyitegeka	-12391
BM	-12392
gui	-12393
nant	-12394
▁Pau	-12395
▁Sebu	-12396
▁arayi	-12397
▁Junior	-12398
▁Parike	-12399
▁Ikiyaga	-12400
▁Ositara	-12401
▁ibihuha	-12402
▁agatanga	-12403
▁bacuruza	-12404
▁Isirayeli	-12405
▁Umukristo	-12406
▁uburiganya	-12407
▁kuburanisha	-12408
IRO	-12409
▁).	-12410
lian	-12411
wunga	-12412
▁with	-12413
Ibitaro	-12414
▁Louise	-12415
▁utundi	-12416
imyitozo	-12417
▁akenewe	-12418
▁Mibambwe	-12419
▁barishwe	-12420
▁gisubizo	-12421
▁hatanzwe	-12422
▁kwanduza	-12423
▁bizagenda	-12424
fashanyigisho	-12425
IRE	-12426
▁AU	-12427
▁Un	-12428
gers	-12429
▁BRD	-12430
▁muhe	-12431
garuke	-12432
manswa	-12433
▁Fabri	-12434
▁inoze	-12435
▁kwiha	-12436
tirirwa	-12437
▁buriho	-12438
injiriza	-12439
▁Batutsi	-12440
▁abajura	-12441
▁rikorwa	-12442
▁uhagaze	-12443
▁ibarirwa	-12444
▁ntihagire	-12445
▁yashoboye	-12446
▁yerekanwe	-12447
▁Cyongereza	-12448
▁gukurikizwa	-12449
ifu	-12450
yota	-12451
bouti	-12452
mbuke	-12453
▁Taba	-12454
▁sini	-12455
▁yiyi	-12456
cakara	-12457
▁warwo	-12458
Umugabo	-12459
byariye	-12460
▁Ingero	-12461
▁yihuta	-12462
▁Musinga	-12463
▁gushima	-12464
▁shebuja	-12465
teganyaga	-12466
▁gutoroka	-12467
▁gusubizwa	-12468
▁ubwitange	-12469
Imiyoborere	-12470
▁Demukarasi	-12471
Abanyafurika	-12472
▁Ibidukikije	-12473
LM	-12474
▁je	-12475
▁or	-12476
▁All	-12477
▁Bayi	-12478
▁Hami	-12479
▁Mart	-12480
intoki	-12481
▁Brown	-12482
ibirizi	-12483
toranyi	-12484
▁Intore	-12485
▁babaha	-12486
▁dufate	-12487
▁myenda	-12488
▁ikeneye	-12489
▁itukura	-12490
▁rwanjye	-12491
▁ubwabyo	-12492
▁babivuga	-12493
▁busitani	-12494
▁hatagira	-12495
▁bashyizwe	-12496
▁Kimihurura	-12497
▁Ibyanditswe	-12498
▁kwidagadura	-12499
cas	-12500
▁shi	-12501
pital	-12502
toire	-12503
yisha	-12504
▁Jane	-12505
▁Money	-12506
▁imana	-12507
subikwa	-12508
▁Dufite	-12509
▁barazi	-12510
geragere	-12511
gukanywe	-12512
icyemezo	-12513
▁Kanimba	-12514
komangoma	-12515
▁umujinya	-12516
▁utangira	-12517
▁atangazwa	-12518
▁gutoranya	-12519
▁imiturire	-12520
▁yamaganye	-12521
▁yoherejwe	-12522
▁Kimisagara	-12523
▁gutunganywa	-12524
▁ryitabiriwe	-12525
▁uteganyijwe	-12526
uruhererekane	-12527
geshi	-12528
kemwa	-12529
zingo	-12530
▁Noel	-12531
Inkuru	-12532
buloni	-12533
mamare	-12534
umurwa	-12535
umvira	-12536
▁Henry	-12537
abatoza	-12538
▁Nelson	-12539
▁busaba	-12540
▁ishoti	-12541
▁mbonye	-12542
▁musozo	-12543
umwijima	-12544
▁byahoze	-12545
▁byemezo	-12546
▁harebwa	-12547
umugabane	-12548
▁akagenda	-12549
▁ntibyari	-12550
ikinyejana	-12551
▁bushoboka	-12552
▁arababwira	-12553
▁musirikare	-12554
ranabitekerezo	-12555
'.	-12556
ABO	-12557
cus	-12558
dja	-12559
gua	-12560
hili	-12561
ubun	-12562
▁ifa	-12563
▁Paki	-12564
▁bani	-12565
▁foto	-12566
regura	-12567
▁Mucyo	-12568
▁Servi	-12569
▁Gatare	-12570
Ubwiyunge	-12571
imibanire	-12572
▁Umuhango	-12573
▁dukorera	-12574
▁ziyobowe	-12575
▁byateguwe	-12576
▁yifashishwa	-12577
Est	-12578
rant	-12579
wumu	-12580
▁Kar	-12581
▁Van	-12582
gwira	-12583
▁Kami	-12584
▁Yize	-12585
▁Ahamya	-12586
▁Inzira	-12587
▁Mobile	-12588
▁mirire	-12589
zirikana	-12590
▁bwagiye	-12591
▁busesuye	-12592
▁dusanzwe	-12593
▁yafunzwe	-12594
yabutabire	-12595
shishikajwe	-12596
ubuhumekero	-12597
▁inzirakarengane	-12598
UKO	-12599
ivu	-12600
UMWE	-12601
ding	-12602
abato	-12603
nanye	-12604
sebya	-12605
▁Misa	-12606
▁Muko	-12607
seneza	-12608
▁zanyu	-12609
▁kanama	-12610
▁yakuwe	-12611
▁amabara	-12612
▁arasaba	-12613
▁Kayihura	-12614
▁risanzwe	-12615
▁kwimukira	-12616
▁bidahagije	-12617
ranyamagambo	-12618
▁mitekerereze	-12619
▁inyangamugayo	-12620
hy	-12621
mour	-12622
sper	-12623
wood	-12624
Mbese	-12625
▁Maria	-12626
▁Tumba	-12627
▁mpita	-12628
▁ukabi	-12629
ubugome	-12630
▁bikize	-12631
▁labora	-12632
▁mitima	-12633
▁afungwa	-12634
▁arebana	-12635
▁bagombye	-12636
▁umubyara	-12637
▁bakagenda	-12638
▁butangaza	-12639
▁Uhagarariye	-12640
▁igisobanuro	-12641
%)	-12642
ef	-12643
ii	-12644
mb	-12645
Lea	-12646
kiru	-12647
leya	-12648
resi	-12649
vumu	-12650
▁basi	-12651
▁twan	-12652
▁igura	-12653
umusozi	-12654
▁Davido	-12655
▁bubaka	-12656
▁buteye	-12657
tangirana	-12658
▁Magufuli	-12659
▁abapfuye	-12660
▁byibanze	-12661
▁rwafashe	-12662
▁byanditse	-12663
ragabanutse	-12664
▁abashoferi	-12665
USH	-12666
Uni	-12667
ily	-12668
▁Gaz	-12669
▁Iya	-12670
amapa	-12671
▁yiya	-12672
▁imibu	-12673
▁nyoni	-12674
byarira	-12675
byinnyi	-12676
tinyaga	-12677
urwango	-12678
▁Busasa	-12679
▁atwaye	-12680
▁mufuka	-12681
▁uhabwa	-12682
▁Platini	-12683
▁kwikura	-12684
▁santere	-12685
amadorali	-12686
▁Babiloni	-12687
▁byongeye	-12688
Abongereza	-12689
▁Rutayisire	-12690
▁bakoreraga	-12691
Fi	-12692
phy	-12693
rom	-12694
ère	-12695
llin	-12696
mate	-12697
vest	-12698
derman	-12699
kuyemo	-12700
▁ntiza	-12701
terwaga	-12702
▁umunyu	-12703
▁zivuye	-12704
juririra	-12705
shakirwa	-12706
▁Dushimi	-12707
▁Fabrice	-12708
Ababiligi	-12709
wunganizi	-12710
▁bimukira	-12711
▁umusatsi	-12712
▁umutwaro	-12713
hangayitse	-12714
▁Busasamana	-12715
▁yatangiraga	-12716
An	-12717
dom	-12718
▁Kw	-12719
face	-12720
tuka	-12721
entre	-12722
▁nitu	-12723
▁Forum	-12724
▁Gaspa	-12725
ubukure	-12726
▁yakomo	-12727
tererana	-12728
▁Nzaboni	-12729
▁twavuze	-12730
▁Ndimbati	-12731
▁Yakinnye	-12732
▁bakabura	-12733
▁imisatsi	-12734
▁yasinywe	-12735
▁ahamagara	-12736
▁batubwira	-12737
▁byasobanuwe	-12738
▁habe	-12739
▁ruti	-12740
baruta	-12741
kimara	-12742
▁ukubi	-12743
▁Sebeya	-12744
▁ajyana	-12745
▁gatozi	-12746
abatutsi	-12747
hitiramo	-12748
migabane	-12749
▁Abakuru	-12750
▁Rugamba	-12751
▁amakenga	-12752
▁bibabaje	-12753
▁biyemeza	-12754
▁hakomeje	-12755
▁mashyaka	-12756
▁bajyanywe	-12757
▁kubatizwa	-12758
▁kubigisha	-12759
▁ugaragara	-12760
▁gishingiye	-12761
▁imishahara	-12762
▁bashoboraga	-12763
,"	-12764
Ura	-12765
ick	-12766
ugu	-12767
▁KC	-12768
▁Yv	-12769
▁Iza	-12770
▁Nan	-12771
tamba	-12772
uruzi	-12773
▁Free	-12774
▁Semu	-12775
ganzwa	-12776
▁ukamu	-12777
▁Salaam	-12778
▁murugo	-12779
sezerera	-12780
tekereze	-12781
▁gutabwa	-12782
▁twagize	-12783
imidugudu	-12784
▁Abajijwe	-12785
▁Jenerali	-12786
▁byigenga	-12787
▁bitangira	-12788
ubwuzuzanye	-12789
▁gukomereza	-12790
▁rwategetse	-12791
▁Ositaraliya	-12792
▁cyitabiriwe	-12793
dozi	-12794
kumwe	-12795
▁Njye	-12796
▁duha	-12797
ndetse	-12798
▁kwama	-12799
▁Benedi	-12800
hungaban	-12801
imashini	-12802
▁magingo	-12803
▁yambere	-12804
impinduka	-12805
▁byishimo	-12806
▁inyemeza	-12807
▁tukabona	-12808
▁imyumbati	-12809
▁hakoreshwa	-12810
▁abashakanye	-12811
abaminisitiri	-12812
GEN	-12813
▁va	-12814
Inde	-12815
jega	-12816
sure	-12817
ukwa	-12818
▁CDR	-12819
▁sho	-12820
bingo	-12821
vange	-12822
▁CNLG	-12823
▁yago	-12824
yobera	-12825
abazize	-12826
umunani	-12827
▁Yemeza	-12828
▁bigana	-12829
▁imitsi	-12830
▁nigeze	-12831
▁zigeze	-12832
rekatete	-12833
▁Gaspard	-12834
amashyaka	-12835
▁Kameruni	-12836
▁Niyibizi	-12837
▁bagahita	-12838
▁bashingiye	-12839
▁Habumuremyi	-12840
▁munyarwanda	-12841
▁umutimanama	-12842
▁Pan	-12843
▁Vla	-12844
▁WAS	-12845
▁uwe	-12846
hunzi	-12847
shuko	-12848
▁Mike	-12849
kristu	-12850
ubuntu	-12851
▁Kanye	-12852
abagizi	-12853
kusanya	-12854
venture	-12855
▁kikaza	-12856
▁zemewe	-12857
shwanama	-12858
▁Euphrem	-12859
▁cyakora	-12860
▁kirombe	-12861
▁Ubukungu	-12862
▁rugamije	-12863
▁Ibiganiro	-12864
▁anyuranye	-12865
▁bakurikije	-12866
ZO	-12867
sibo	-12868
▁Mpo	-12869
▁ali	-12870
kwano	-12871
▁Equi	-12872
▁Kera	-12873
▁Islam	-12874
▁Korea	-12875
▁Valen	-12876
▁igika	-12877
kingira	-12878
▁bumeze	-12879
▁habamo	-12880
▁irondo	-12881
▁Aganira	-12882
▁Yabwiye	-12883
▁baracya	-12884
▁gucibwa	-12885
▁ntsinzi	-12886
ngakamere	-12887
▁Djibouti	-12888
▁kurekura	-12889
▁yabayeho	-12890
▁yatangaga	-12891
▁twagiranye	-12892
▁Mujawamariya	-12893
FRW	-12894
fan	-12895
bwoko	-12896
▁kwin	-12897
▁nayi	-12898
▁zamu	-12899
▁yabwo	-12900
ibarura	-12901
▁Bishop	-12902
▁Madame	-12903
▁MINAGRI	-12904
▁bahanga	-12905
▁bwabaye	-12906
▁rigomba	-12907
rengagije	-12908
▁bihagaze	-12909
▁vitamine	-12910
▁MINISANTE	-12911
▁birangiye	-12912
▁byimazeyo	-12913
▁bagaragaye	-12914
▁guhagarikwa	-12915
▁inyokomuntu	-12916
ges	-12917
▁KA	-12918
hujwe	-12919
▁Cote	-12920
bagiwe	-12921
gajuru	-12922
▁ikilo	-12923
▁nkiri	-12924
lestine	-12925
sinzira	-12926
▁inenge	-12927
▁yanduye	-12928
▁Icyemezo	-12929
▁guhuriza	-12930
▁ihanitse	-12931
▁gucuranga	-12932
▁yahabwaga	-12933
dèle	-12934
rtif	-12935
zaho	-12936
▁Ingu	-12937
hannye	-12938
kemure	-12939
▁Ntibi	-12940
ibyumba	-12941
zuzanya	-12942
▁Bizimu	-12943
▁nkumva	-12944
▁ukajya	-12945
heburayo	-12946
ishyirwa	-12947
▁amayeri	-12948
▁ihazabu	-12949
▁bisigaye	-12950
▁gakabije	-12951
▁Mwiseneza	-12952
▁ikiruhuko	-12953
▁mugitondo	-12954
▁rwihishwa	-12955
▁bwerekanye	-12956
▁bagatangira	-12957
So	-12958
rome	-12959
zuwe	-12960
▁Sau	-12961
Ibyah	-12962
ikawa	-12963
▁Mary	-12964
▁Rusa	-12965
inyago	-12966
tumira	-12967
▁Tanga	-12968
▁bwami	-12969
▁ikihe	-12970
▁kumwa	-12971
▁ugize	-12972
▁agizwe	-12973
▁kariya	-12974
▁kuvuza	-12975
rusalemu	-12976
umwarimu	-12977
▁ibivuga	-12978
▁kubagwa	-12979
▁wamenya	-12980
▁zirenze	-12981
▁Urukundo	-12982
▁umurindi	-12983
▁Bizimungu	-12984
▁akurikije	-12985
amarushanwa	-12986
▁binyamakuru	-12987
▁j	-12988
vode	-12989
▁Gar	-12990
▁Bona	-12991
▁Teri	-12992
▁Zone	-12993
angira	-12994
munity	-12995
utundi	-12996
▁WASAC	-12997
abakiri	-12998
hakanye	-12999
kundiro	-13000
shushan	-13001
▁Indone	-13002
▁Victor	-13003
▁bunoze	-13004
▁tubone	-13005
shishoza	-13006
▁cyamaze	-13007
▁zikunze	-13008
dufashije	-13009
▁bahuguwe	-13010
▁kubeshya	-13011
▁rusanzwe	-13012
ubucamanza	-13013
▁nyabagendwa	-13014
xe	-13015
▁es	-13016
ICOM	-13017
▁Coa	-13018
tiona	-13019
▁Inye	-13020
Ishuri	-13021
▁Aline	-13022
▁bungu	-13023
abarezi	-13024
rwariye	-13025
tegekwa	-13026
▁Lionel	-13027
▁byanyu	-13028
jugujugu	-13029
▁kwishyu	-13030
▁tukajya	-13031
▁utwatsi	-13032
sengimana	-13033
▁Urugwiro	-13034
▁Pacifique	-13035
▁ahabereye	-13036
▁ategereje	-13037
▁bidufasha	-13038
▁ibikubiye	-13039
▁twagombye	-13040
ibilometero	-13041
▁byanditswe	-13042
▁risobanura	-13043
▁ubwisanzure	-13044
ão	-13045
▁IKI	-13046
ngubu	-13047
risse	-13048
▁waho	-13049
▁yaro	-13050
urundi	-13051
▁ataki	-13052
amazina	-13053
tekanye	-13054
▁Bakame	-13055
▁Marcel	-13056
filisiti	-13057
▁bubatse	-13058
▁kwitoza	-13059
dorerwamo	-13060
▁abazungu	-13061
▁ibicanwa	-13062
▁bwimbitse	-13063
▁yatubwiye	-13064
▁banyuranye	-13065
▁umushinjacyaha	-13066
ij	-13067
ANO	-13068
icy	-13069
uye	-13070
yum	-13071
fred	-13072
shwi	-13073
▁iry	-13074
▁Adri	-13075
▁Card	-13076
▁tube	-13077
▁wize	-13078
Ubudage	-13079
gerezwa	-13080
rongora	-13081
shimusi	-13082
▁Serena	-13083
▁bitamu	-13084
▁iyitwa	-13085
▁nifuza	-13086
▁amabati	-13087
▁byatanze	-13088
▁umugongo	-13089
▁haracyari	-13090
▁twiyemeje	-13091
▁yunganira	-13092
▁kubahirizwa	-13093
Ban	-13094
syi	-13095
▁On	-13096
ruba	-13097
▁Muk	-13098
▁Site	-13099
▁Zari	-13100
▁akore	-13101
mburuke	-13102
▁bafana	-13103
▁bakaha	-13104
▁yizera	-13105
▁Mandela	-13106
▁amasaka	-13107
▁yagenze	-13108
▁Umuturage	-13109
▁cyanditse	-13110
▁kwivuriza	-13111
▁yazamutse	-13112
▁umukoresha	-13113
?’	-13114
We	-13115
suri	-13116
▁Eco	-13117
bitsi	-13118
forma	-13119
furije	-13120
kiraga	-13121
▁Abami	-13122
▁Tchad	-13123
▁kubwi	-13124
▁Bivuze	-13125
▁Butera	-13126
▁Fidèle	-13127
▁Ikintu	-13128
▁Yvonne	-13129
▁biramu	-13130
▁inkuba	-13131
▁kakaba	-13132
▁atagira	-13133
▁bihenze	-13134
korerwaga	-13135
▁babarizwa	-13136
▁yahamijwe	-13137
▁bakaganira	-13138
▁iyicarubozo	-13139
▁umushakashatsi	-13140
CH	-13141
tti	-13142
▁AP	-13143
▁sy	-13144
amwe	-13145
ryso	-13146
yewe	-13147
▁Don	-13148
▁Ire	-13149
amasa	-13150
▁Ruge	-13151
▁Child	-13152
▁ihana	-13153
umurage	-13154
▁bizamu	-13155
▁bujura	-13156
▁gatera	-13157
shirizwa	-13158
ubushake	-13159
▁Ibrahim	-13160
▁ishimwe	-13161
▁wigenga	-13162
sinziriye	-13163
yandikire	-13164
▁Murekezi	-13165
▁bitabaye	-13166
▁impushya	-13167
▁kongerwa	-13168
▁yahereye	-13169
abacamanza	-13170
▁byashyizwe	-13171
▁GA	-13172
boro	-13173
kare	-13174
▁Ren	-13175
huzwa	-13176
▁Dami	-13177
▁Shan	-13178
▁Mihigo	-13179
▁UNESCO	-13180
abashaka	-13181
gaburira	-13182
▁bubasha	-13183
▁kubasha	-13184
▁twamaze	-13185
▁Somaliya	-13186
▁ibibanza	-13187
▁yarakoze	-13188
▁yasubiye	-13189
urukozasoni	-13190
▁Yerusalemu	-13191
▁gushyirwamo	-13192
▁twaganiriye	-13193
ICEF	-13194
▁buki	-13195
▁mana	-13196
▁abawu	-13197
▁uzamu	-13198
Kwibuka	-13199
simbuza	-13200
▁Claver	-13201
▁ibigwi	-13202
▁imfura	-13203
▁inyito	-13204
▁batunze	-13205
▁ntibaba	-13206
▁twizera	-13207
▁wafashe	-13208
umuvugizi	-13209
▁kungurana	-13210
▁ziturutse	-13211
▁yaboneyeho	-13212
ubugenzacyaha	-13213
camo	-13214
eute	-13215
isaha	-13216
▁Bana	-13217
▁Muzi	-13218
▁Singa	-13219
▁byaro	-13220
▁ndimo	-13221
ishimwe	-13222
▁wagira	-13223
▁Etienne	-13224
▁Rwigema	-13225
▁gukinwa	-13226
▁ifitiye	-13227
▁gusabana	-13228
▁gutumiza	-13229
▁kanyanga	-13230
▁nsengero	-13231
▁ntangira	-13232
▁dufitanye	-13233
▁Umwamikazi	-13234
▁volleyball	-13235
▁Yabitangaje	-13236
▁dufatanyije	-13237
▁ubuhahirane	-13238
eld	-13239
impa	-13240
▁igo	-13241
homba	-13242
▁Omar	-13243
▁club	-13244
▁keza	-13245
horana	-13246
yavuze	-13247
tunguru	-13248
urusobe	-13249
▁arenze	-13250
▁ibyara	-13251
▁Buravan	-13252
▁mabanki	-13253
▁hakabaho	-13254
▁matorero	-13255
▁igendanwa	-13256
▁guhanahana	-13257
gas	-13258
imé	-13259
▁VI	-13260
ANGA	-13261
▁uhe	-13262
umvaga	-13263
zigama	-13264
▁Ndera	-13265
▁biryo	-13266
▁ntaki	-13267
▁ntayo	-13268
▁twayi	-13269
Umukino	-13270
kubwabo	-13271
mbabazi	-13272
rekurwa	-13273
umutuku	-13274
▁hagize	-13275
▁agenewe	-13276
▁ahembwa	-13277
▁akomeze	-13278
▁baganga	-13279
▁igenewe	-13280
▁twigeze	-13281
▁utagira	-13282
sanyirizo	-13283
abagororwa	-13284
remangingo	-13285
▁amatafari	-13286
▁baramutse	-13287
▁zashyizwe	-13288
vugabutumwa	-13289
▁imurikagurisha	-13290
ming	-13291
ogle	-13292
TANYI	-13293
vumba	-13294
giyemo	-13295
rekani	-13296
shwaga	-13297
▁Johan	-13298
menyera	-13299
▁Bahati	-13300
▁Mugina	-13301
▁basize	-13302
▁icyiza	-13303
▁tuzabi	-13304
▁imidari	-13305
▁barwanya	-13306
▁bifitiye	-13307
▁yarashwe	-13308
▁gutinyuka	-13309
▁yabajijwe	-13310
▁Murekatete	-13311
▁kubishyira	-13312
▁zashyizweho	-13313
▁ryashyizweho	-13314
▁yadutangarije	-13315
▁st	-13316
rida	-13317
▁Mor	-13318
▁Ton	-13319
anasi	-13320
▁gifu	-13321
▁Moham	-13322
▁Union	-13323
▁abaje	-13324
▁cyobo	-13325
▁ntiri	-13326
▁Andrew	-13327
▁Yakoze	-13328
▁akantu	-13329
▁intare	-13330
huriyeho	-13331
▁urabona	-13332
▁batuyemo	-13333
▁werekeza	-13334
▁zihagije	-13335
▁Intambara	-13336
tunganyijwe	-13337
▁bazitabira	-13338
ks	-13339
Gen	-13340
ège	-13341
inyu	-13342
nnyi	-13343
seye	-13344
▁Asa	-13345
timba	-13346
▁Hadi	-13347
▁Jona	-13348
▁soya	-13349
▁yasa	-13350
inkuba	-13351
ragamo	-13352
zerere	-13353
▁cyeme	-13354
▁zarwo	-13355
KOTANYI	-13356
▁gitera	-13357
▁tukana	-13358
▁tureba	-13359
umuhanga	-13360
▁abishwe	-13361
▁guhimba	-13362
▁ibimera	-13363
▁indonke	-13364
▁Business	-13365
▁gikristo	-13366
▁teritwari	-13367
▁bahatanira	-13368
▁!	-13369
gato	-13370
zabe	-13371
▁Ful	-13372
biriza	-13373
tuweri	-13374
▁Byaba	-13375
▁agura	-13376
▁nzozi	-13377
▁baraza	-13378
▁basaza	-13379
▁kuziba	-13380
▁makeya	-13381
▁mutego	-13382
▁rwanda	-13383
Itangazo	-13384
aniranye	-13385
ruhukiye	-13386
▁Gutanga	-13387
▁ishyano	-13388
ganirwaho	-13389
▁nyongera	-13390
▁yatsinda	-13391
▁Ubushinwa	-13392
▁umuhanuzi	-13393
umunyeshuri	-13394
▁zidasanzwe	-13395
abashakashatsi	-13396
ogo	-13397
newe	-13398
▁Vol	-13399
▁nge	-13400
daste	-13401
ganze	-13402
▁Gisa	-13403
▁Thar	-13404
reruya	-13405
▁babyo	-13406
▁bumve	-13407
▁igere	-13408
▁utabi	-13409
ahazaza	-13410
rirwaga	-13411
rirwamo	-13412
▁iburyo	-13413
▁mazutu	-13414
▁azakora	-13415
▁irwanya	-13416
▁kubitsa	-13417
yoborwaga	-13418
▁agahenge	-13419
▁kubyumva	-13420
▁kwambura	-13421
▁umufasha	-13422
▁bagaragara	-13423
keragutabara	-13424
▁umwirondoro	-13425
nick	-13426
▁RNC	-13427
cungu	-13428
remwe	-13429
▁Libe	-13430
▁gupa	-13431
▁Runda	-13432
▁uwamu	-13433
▁Nyanja	-13434
▁tubiri	-13435
▁gihombo	-13436
▁imbyino	-13437
▁iravuga	-13438
▁Boniface	-13439
▁bapolisi	-13440
▁hazabaho	-13441
▁umusigiti	-13442
▁ibirometero	-13443
▁Mbarushimana	-13444
OL	-13445
▁ES	-13446
Indi	-13447
puta	-13448
ibibi	-13449
ywera	-13450
▁Make	-13451
▁Offi	-13452
▁boro	-13453
▁pasi	-13454
▁Agnes	-13455
▁Shema	-13456
▁abaki	-13457
hungire	-13458
▁RWANDA	-13459
▁bibuga	-13460
▁kuzimya	-13461
cumbikira	-13462
▁akamenya	-13463
yanyigisho	-13464
▁kwiyemeza	-13465
▁ibigirwamana	-13466
Efe	-13467
USA	-13468
▁ar	-13469
levi	-13470
ople	-13471
▁Coo	-13472
▁WFC	-13473
▁Assi	-13474
▁Save	-13475
▁Teta	-13476
mariye	-13477
murira	-13478
remiya	-13479
▁Eliya	-13480
tanyije	-13481
▁basubi	-13482
▁iyicwa	-13483
eutenant	-13484
sinyanye	-13485
▁rukwiye	-13486
▁rwaciwe	-13487
tangizaga	-13488
▁bakinnye	-13489
▁barumuna	-13490
▁byashize	-13491
▁byonyine	-13492
▁ibyinshi	-13493
▁kilatini	-13494
▁ndashaka	-13495
▁Gukoresha	-13496
▁yanyujije	-13497
▁yatsinzemo	-13498
▁byagarutsweho	-13499
Mwa	-13500
urw	-13501
Tech	-13502
tayo	-13503
▁Bob	-13504
▁EBM	-13505
▁ruki	-13506
kemuke	-13507
kubone	-13508
shonje	-13509
▁Gasha	-13510
▁kuntu	-13511
▁Mukama	-13512
▁borozi	-13513
▁Kumenya	-13514
▁mirasire	-13515
▁yitabira	-13516
▁yiyemeza	-13517
kangurirwa	-13518
▁basketball	-13519
▁bitwigisha	-13520
ingirakamaro	-13521
Reka	-13522
vara	-13523
▁Dire	-13524
▁Icye	-13525
▁Nico	-13526
wubaka	-13527
▁mubyo	-13528
Umurimo	-13529
byemeye	-13530
kanishi	-13531
▁Rukoma	-13532
▁baraha	-13533
▁incuro	-13534
▁mukora	-13535
▁Uwineza	-13536
▁gucyura	-13537
▁itegura	-13538
rezidansi	-13539
▁Riderman	-13540
▁kubonana	-13541
Umucamanza	-13542
▁guhimbaza	-13543
▁washinzwe	-13544
▁yiganjemo	-13545
▁mbonezamikurire	-13546
zen	-13547
ning	-13548
sano	-13549
some	-13550
▁ADF	-13551
▁uge	-13552
gamye	-13553
gwamo	-13554
▁Stan	-13555
▁Wari	-13556
▁siko	-13557
mitima	-13558
raniro	-13559
sukura	-13560
tuyemo	-13561
▁Bénin	-13562
igitabo	-13563
▁Byimana	-13564
▁Ikigega	-13565
▁ingemwe	-13566
▁kigenda	-13567
▁rukingo	-13568
▁Clarisse	-13569
▁Umuhanda	-13570
▁dusuzume	-13571
▁kubivuga	-13572
▁abasigaye	-13573
▁kuyikoresha	-13574
▁indashyikirwa	-13575
IBI	-13576
USE	-13577
zzi	-13578
▁Ré	-13579
pore	-13580
stir	-13581
Inter	-13582
zibar	-13583
▁Gihu	-13584
▁Muru	-13585
▁Yoro	-13586
▁niwo	-13587
sekuru	-13588
kandara	-13589
▁Rusumo	-13590
▁bihaye	-13591
▁yazamu	-13592
subiraho	-13593
▁gihamya	-13594
uburebure	-13595
▁umugenzi	-13596
▁Conference	-13597
▁coronavirus	-13598
DRC	-13599
▁NE	-13600
▁NK	-13601
biye	-13602
lozo	-13603
vine	-13604
▁Iwa	-13605
▁Nye	-13606
byizi	-13607
▁Alli	-13608
▁Cabo	-13609
gondwa	-13610
sabiwe	-13611
▁Petro	-13612
▁rindi	-13613
▁rwawe	-13614
gwiriye	-13615
▁Chryso	-13616
▁wuzuye	-13617
▁Girinka	-13618
▁Ngamije	-13619
▁ibigega	-13620
▁kujyayo	-13621
▁abatware	-13622
▁tukagira	-13623
▁Umusaruro	-13624
▁amashyaka	-13625
MV	-13626
Rw	-13627
▁AT	-13628
mika	-13629
nade	-13630
tama	-13631
▁Ada	-13632
▁NEC	-13633
▁kayo	-13634
yobore	-13635
▁ibida	-13636
sindisha	-13637
▁cyifuzo	-13638
▁zakozwe	-13639
▁bakunzwe	-13640
▁imisanzu	-13641
▁yegereye	-13642
▁bashimira	-13643
▁biganisha	-13644
▁ci	-13645
lade	-13646
▁ele	-13647
▁uhu	-13648
aniza	-13649
hitwa	-13650
honga	-13651
sotho	-13652
zumva	-13653
▁Hana	-13654
▁imya	-13655
▁pour	-13656
▁that	-13657
bikira	-13658
tagira	-13659
icyatsi	-13660
▁Izindi	-13661
▁bwabyo	-13662
ranganya	-13663
rerekana	-13664
▁Reuters	-13665
▁Yunzemo	-13666
▁kwiheba	-13667
▁rifasha	-13668
mwemerera	-13669
▁kuzakina	-13670
▁uturutse	-13671
shyiriyeho	-13672
▁imyifatire	-13673
▁munyamakuru	-13674
Con	-13675
ject	-13676
▁Ron	-13677
▁Tha	-13678
▁somo	-13679
▁yani	-13680
Imyaka	-13681
gorana	-13682
mideli	-13683
sigira	-13684
▁Irani	-13685
Ikigega	-13686
andikwa	-13687
cyangwa	-13688
▁bizera	-13689
▁Kanseri	-13690
▁kuvanga	-13691
ikoreshwa	-13692
tangariza	-13693
▁Kibogora	-13694
▁byifashe	-13695
▁ihuriweho	-13696
▁Ibikoresho	-13697
▁aherekejwe	-13698
▁yanganyije	-13699
▁yakoreshaga	-13700
PRO	-13701
gili	-13702
kusi	-13703
mibu	-13704
sango	-13705
tasha	-13706
▁Muti	-13707
Zaburi	-13708
rurema	-13709
tsinde	-13710
▁Evode	-13711
Abadage	-13712
bwimana	-13713
mbiriye	-13714
urugaga	-13715
▁abajya	-13716
▁bwacyo	-13717
▁cyambu	-13718
▁irimbi	-13719
▁twibuka	-13720
▁wagizwe	-13721
▁yanenze	-13722
imyumbati	-13723
▁gupfobya	-13724
▁ijanisha	-13725
▁yasuraga	-13726
▁Rutikanga	-13727
▁bihinduka	-13728
▁Mageragere	-13729
▁bibangamira	-13730
▁ibinyamakuru	-13731
▁rwashyiriweho	-13732
AD	-13733
Ar	-13734
los	-13735
nwa	-13736
rake	-13737
▁Cap	-13738
▁Lan	-13739
▁Tro	-13740
▁per	-13741
▁Amwe	-13742
▁Park	-13743
▁zigi	-13744
suhuza	-13745
▁ryaje	-13746
ikibuga	-13747
▁Judith	-13748
▁Umusaza	-13749
▁amababi	-13750
abasohoka	-13751
▁Monastir	-13752
▁Rujugira	-13753
▁arushaho	-13754
▁bananiwe	-13755
▁kubibona	-13756
▁kutavuga	-13757
▁Yashimiye	-13758
▁bukorerwa	-13759
▁gusubiramo	-13760
▁Brazzaville	-13761
▁gushushanya	-13762
▁bwambukiranya	-13763
▁intangarugero	-13764
firi	-13765
gawa	-13766
sito	-13767
▁muku	-13768
Indege	-13769
mugire	-13770
▁Rwego	-13771
▁anaba	-13772
▁barana	-13773
▁nzajya	-13774
kagombye	-13775
pasiteri	-13776
yoroshya	-13777
▁ishyari	-13778
▁Umuganda	-13779
▁bujurire	-13780
▁bwigunge	-13781
▁kubigeraho	-13782
▁uburangare	-13783
▁Laboratwari	-13784
▁yashyikirijwe	-13785
teganyanyigisho	-13786
sus	-13787
tat	-13788
▁Mal	-13789
▁RWA	-13790
▁ndo	-13791
zangu	-13792
▁News	-13793
▁yase	-13794
gitare	-13795
hagira	-13796
rokoye	-13797
taweho	-13798
▁Ahmed	-13799
▁CHOGM	-13800
▁arara	-13801
▁biran	-13802
▁birwa	-13803
▁ubuhe	-13804
bonerwa	-13805
genzere	-13806
hangane	-13807
▁bigaga	-13808
▁ziriho	-13809
ngerwamo	-13810
▁Mugunga	-13811
▁Mukanda	-13812
▁kibanza	-13813
▁wemerewe	-13814
icyamamare	-13815
shyingirwa	-13816
▁kwihutira	-13817
▁abagororwa	-13818
ee	-13819
gado	-13820
irman	-13821
Kugira	-13822
korora	-13823
▁Mathi	-13824
▁ikoze	-13825
▁twaje	-13826
▁Alfred	-13827
▁Arthur	-13828
▁yubaka	-13829
umwuzure	-13830
▁Areruya	-13831
▁Prosper	-13832
▁wongeye	-13833
subukurwa	-13834
▁Rugarama	-13835
▁abinjira	-13836
▁cyagabwe	-13837
▁gusohoza	-13838
▁kujyanwa	-13839
▁kwimurwa	-13840
▁Mpanabyaha	-13841
▁umwimerere	-13842
▁byagaragaje	-13843
▁yaratangiye	-13844
▁ihindagurika	-13845
oza	-13846
▁AI	-13847
▁ge	-13848
tobo	-13849
▁BDF	-13850
gishe	-13851
▁CHUK	-13852
▁atwi	-13853
▁ibyu	-13854
tezeho	-13855
▁Danny	-13856
▁Rimwe	-13857
▁arebe	-13858
▁Kigoma	-13859
▁icyaba	-13860
bahirije	-13861
▁bandika	-13862
▁inkambi	-13863
▁umugani	-13864
▁Bisesero	-13865
tangirijwe	-13866
▁bamaranye	-13867
▁Abafaransa	-13868
▁babyaranye	-13869
igenamigambi	-13870
cto	-13871
▁cm	-13872
guta	-13873
fatwe	-13874
surwa	-13875
▁kina	-13876
farasi	-13877
gombwa	-13878
shimwa	-13879
siramu	-13880
sororo	-13881
▁rwamu	-13882
ikigega	-13883
▁Bukuru	-13884
tungurwa	-13885
▁biganza	-13886
▁bihishe	-13887
▁yongere	-13888
sezeranye	-13889
▁Nigeriya	-13890
▁atubwira	-13891
▁bukenewe	-13892
▁gusukura	-13893
▁ubusugire	-13894
▁urugomero	-13895
▁bashyiraho	-13896
▁zigendanwa	-13897
▁Bonaventure	-13898
▁ikinyabiziga	-13899
▁yabisobanuye	-13900
▁yahagaritswe	-13901
wari	-13902
▁KAR	-13903
▁ica	-13904
▁Uwan	-13905
hereze	-13906
vation	-13907
▁Press	-13908
▁kumpa	-13909
▁yaran	-13910
Abaroma	-13911
Umutoza	-13912
▁Gitega	-13913
▁babaho	-13914
▁batoza	-13915
abangavu	-13916
abanyama	-13917
bereyemo	-13918
gerenade	-13919
ingoboka	-13920
▁abikora	-13921
▁bigenga	-13922
▁byahawe	-13923
▁kuramya	-13924
▁abatanga	-13925
▁itsindwa	-13926
▁Kamuzinzi	-13927
▁Dushimimana	-13928
shishikarizwa	-13929
dra	-13930
gre	-13931
radu	-13932
ifoto	-13933
▁Biza	-13934
franga	-13935
sezeye	-13936
toroka	-13937
▁kunya	-13938
▁nkumu	-13939
▁ubone	-13940
▁uhora	-13941
▁ukana	-13942
▁ibyuka	-13943
▁Intwari	-13944
▁imigezi	-13945
▁akongera	-13946
▁bifuzaga	-13947
▁tukareba	-13948
▁wanditse	-13949
geragezaga	-13950
umushahara	-13951
▁gusengera	-13952
▁icyamamare	-13953
Ic	-13954
ans	-13955
▁HC	-13956
vize	-13957
▁Gir	-13958
▁Law	-13959
▁you	-13960
kamyo	-13961
aspora	-13962
hamije	-13963
kemuye	-13964
roshya	-13965
▁Banya	-13966
▁Jules	-13967
▁Twari	-13968
▁Youth	-13969
▁ukoze	-13970
yigisha	-13971
▁umucyo	-13972
▁zakoze	-13973
▁bongere	-13974
genzereze	-13975
▁bishyira	-13976
▁zikenewe	-13977
▁ahanganye	-13978
▁amadosiye	-13979
▁byimbitse	-13980
▁Ibimenyetso	-13981
Su	-13982
ASSO	-13983
cucu	-13984
▁Fore	-13985
sident	-13986
▁Dream	-13987
▁mwari	-13988
amafoto	-13989
▁Cricket	-13990
▁ashatse	-13991
▁babyara	-13992
▁kwihuta	-13993
▁twabaga	-13994
▁Yorodani	-13995
▁bahageze	-13996
▁bikagera	-13997
▁aherereye	-13998
▁kwishyuza	-13999
▁warokotse	-14000
▁gikurikira	-14001
▁udashobora	-14002
▁umusemburo	-14003
▁myidagaduro	-14004
▁ubwumvikane	-14005
Ho	-14006
VB	-14007
▁ir	-14008
irya	-14009
▁Kel	-14010
▁Son	-14011
▁kon	-14012
Twari	-14013
mpama	-14014
tengu	-14015
twork	-14016
▁Kamu	-14017
raperi	-14018
▁DASSO	-14019
▁kumwo	-14020
▁zacyo	-14021
tambaro	-14022
▁Kayigi	-14023
▁kuduha	-14024
rangajwe	-14025
tiramibu	-14026
▁Gihanga	-14027
▁Rubanda	-14028
▁anganya	-14029
▁buhanga	-14030
▁kirenga	-14031
Imibereho	-14032
▁Zanzibar	-14033
▁arangiza	-14034
▁babikoze	-14035
▁urugwiro	-14036
▁yaragize	-14037
▁gufatirwa	-14038
▁byafashije	-14039
GG	-14040
era	-14041
sai	-14042
yal	-14043
ruzi	-14044
tien	-14045
▁Bwe	-14046
▁CIM	-14047
▁Eze	-14048
▁bun	-14049
agace	-14050
tting	-14051
▁Base	-14052
▁buna	-14053
sigaje	-14054
▁Dakar	-14055
▁akahe	-14056
▁ngero	-14057
isukari	-14058
▁ayandi	-14059
▁bukora	-14060
▁dipolo	-14061
▁Konseye	-14062
▁ukunzwe	-14063
▁wubatse	-14064
▁Yonatani	-14065
▁Irushanwa	-14066
▁umukecuru	-14067
Ubushakashatsi	-14068
Abu	-14069
KOR	-14070
▁IV	-14071
cama	-14072
doni	-14073
gando	-14074
pimwe	-14075
▁Cali	-14076
▁kibu	-14077
▁kubw	-14078
ibyuma	-14079
kuzimu	-14080
▁Uwari	-14081
▁ariwo	-14082
▁ivugwa	-14083
▁myanda	-14084
▁Revenue	-14085
▁asohoka	-14086
▁ikagera	-14087
rangirira	-14088
▁karemano	-14089
▁Imibereho	-14090
▁imirasire	-14091
▁kubakirwa	-14092
▁yajyanywe	-14093
▁yasimbuye	-14094
▁Repuburika	-14095
▁abakekwaho	-14096
▁ishimishije	-14097
▁Byi	-14098
▁Sol	-14099
▁UTB	-14100
fitwe	-14101
nyuka	-14102
stant	-14103
iranga	-14104
ndanye	-14105
▁Haiti	-14106
▁iduka	-14107
gezwaho	-14108
▁Kagano	-14109
ibyorezo	-14110
yubakiye	-14111
▁ahereye	-14112
▁gihanwa	-14113
Nyagasani	-14114
gendekeye	-14115
ifungurwa	-14116
▁Abahanzi	-14117
▁ikwirakwizwa	-14118
PS	-14119
gg	-14120
om	-14121
yuza	-14122
bonan	-14123
shura	-14124
yitse	-14125
▁kiro	-14126
kirira	-14127
vanamo	-14128
▁Croix	-14129
▁waryo	-14130
babajwe	-14131
izahabu	-14132
▁gikoni	-14133
▁irenze	-14134
▁umunye	-14135
shyushya	-14136
▁Eritrea	-14137
himbazamu	-14138
▁Mukamira	-14139
▁bishyize	-14140
▁ibarizwa	-14141
▁kubatera	-14142
▁kwiyunga	-14143
gurishijwe	-14144
▁Nzeyimana	-14145
▁bitangaje	-14146
▁natangiye	-14147
▁gushimisha	-14148
▁kabuhariwe	-14149
▁binyabuzima	-14150
▁Rwiyemezamirimo	-14151
▁it	-14152
▁ter	-14153
bukwa	-14154
ineza	-14155
▁Leon	-14156
▁Naba	-14157
Yehova	-14158
bikoze	-14159
▁kwesa	-14160
▁Mugihe	-14161
▁bujuje	-14162
▁numero	-14163
▁uvugwa	-14164
▁zavuye	-14165
kururira	-14166
renganya	-14167
▁Vestine	-14168
▁Yatanze	-14169
▁abafata	-14170
▁byahise	-14171
hangayiko	-14172
kirutimana	-14173
▁insengero	-14174
▁bukurikira	-14175
kinga	-14176
ryayo	-14177
yinka	-14178
monize	-14179
remare	-14180
wubaha	-14181
▁ibimu	-14182
himbaza	-14183
▁intore	-14184
▁misoro	-14185
▁tugire	-14186
▁tukiri	-14187
▁watewe	-14188
▁yizewe	-14189
▁zagize	-14190
bemerera	-14191
koranaga	-14192
nganirwa	-14193
▁Bahamya	-14194
▁Nyiraba	-14195
▁ibibuga	-14196
▁ibumoso	-14197
▁rwagize	-14198
▁iminyago	-14199
▁Isezerano	-14200
▁bagashaka	-14201
▁batagomba	-14202
▁gutembera	-14203
▁ibinyobwa	-14204
▁kumukorera	-14205
▁kugaragariza	-14206
Isa	-14207
ous	-14208
▁AG	-14209
Tuza	-14210
YIRA	-14211
niba	-14212
tics	-14213
Amour	-14214
byuka	-14215
dical	-14216
▁Seru	-14217
▁kigi	-14218
▁sogo	-14219
zihije	-14220
▁Kwita	-14221
▁Vladi	-14222
▁hazwi	-14223
▁mbiri	-14224
▁uwaba	-14225
▁Imbere	-14226
▁Musoni	-14227
▁bazayi	-14228
▁gihuza	-14229
Umukobwa	-14230
▁agifite	-14231
▁cyatuma	-14232
ibinyobwa	-14233
▁Beatrice	-14234
▁kirazira	-14235
▁ushinjwa	-14236
▁bakurikira	-14237
▁iburasirazuba	-14238
ERG	-14239
YAR	-14240
ins	-14241
▁UK	-14242
Impu	-14243
vers	-14244
canda	-14245
rimbi	-14246
▁Lili	-14247
▁bere	-14248
▁visi	-14249
manura	-14250
▁iguye	-14251
▁twita	-14252
manutse	-14253
▁Equity	-14254
▁bakuye	-14255
▁baraye	-14256
ibyiciro	-14257
ipiganwa	-14258
▁Delgado	-14259
▁Uruhare	-14260
▁abageze	-14261
▁banyura	-14262
▁inyanja	-14263
menyeshwa	-14264
▁Mugabane	-14265
▁Yeremiya	-14266
▁igicumbi	-14267
▁Niyonkuru	-14268
ten	-14269
▁ti	-14270
▁Way	-14271
ginga	-14272
itabi	-14273
▁Poly	-14274
imigezi	-14275
▁Suwede	-14276
▁busabe	-14277
▁hataba	-14278
▁mavuta	-14279
▁yigira	-14280
▁Uwayezu	-14281
▁afitiye	-14282
▁nkabona	-14283
▁urwanya	-14284
Ubusanzwe	-14285
▁banditse	-14286
curabwenge	-14287
▁Yasobanuye	-14288
▁yamenyesheje	-14289
▁hiyongereyeho	-14290
▁yikurikiranya	-14291
▁("	-14292
▁CE	-14293
mple	-14294
andwi	-14295
muneza	-14296
▁covid	-14297
imihigo	-14298
▁imbura	-14299
▁migezi	-14300
gororero	-14301
igitondo	-14302
▁kurebwa	-14303
▁umurava	-14304
▁yafunze	-14305
Abashinwa	-14306
▁amarembo	-14307
▁umwuzure	-14308
▁yishyuye	-14309
tekerereza	-14310
▁Munyemana	-14311
▁Tharcisse	-14312
▁bakundaga	-14313
▁ambasaderi	-14314
▁bagahitamo	-14315
Uburinganire	-14316
▁intangiriro	-14317
.—	-14318
tz	-14319
rth	-14320
▁Jr	-14321
yotsi	-14322
▁nkwi	-14323
▁zawo	-14324
misiri	-14325
silamu	-14326
taniye	-14327
▁agere	-14328
▁igite	-14329
▁ntibe	-14330
▁wabyo	-14331
akanama	-14332
ganirwa	-14333
murirwa	-14334
▁atunze	-14335
▁habeho	-14336
▁nkajya	-14337
▁tutara	-14338
▁yahita	-14339
▁yiciwe	-14340
icyunamo	-14341
subukura	-14342
▁barwana	-14343
▁ntibabi	-14344
▁yangije	-14345
ibisanzwe	-14346
▁buhagaze	-14347
▁kubonera	-14348
▁kwishora	-14349
▁yaberaga	-14350
▁yaburiye	-14351
▁akababaro	-14352
▁byoroheje	-14353
▁kugendana	-14354
▁Umwanditsi	-14355
▁kwemererwa	-14356
▁abanyabyaha	-14357
▁kwiyubakira	-14358
▁ukurikiranyweho	-14359
IMA	-14360
tiza	-14361
impfu	-14362
▁Bill	-14363
▁Guin	-14364
▁ububi	-14365
▁wajya	-14366
▁Nkundu	-14367
▁Stella	-14368
▁batoye	-14369
nyamwuga	-14370
▁ibitoki	-14371
▁ritanga	-14372
▁ukureba	-14373
▁Rusororo	-14374
▁indahiro	-14375
▁yakinaga	-14376
▁Imiterere	-14377
▁Management	-14378
▁Ndayambaje	-14379
▁Nyiringabo	-14380
▁gushingira	-14381
▁yangiritse	-14382
▁agakingirizo	-14383
Ur	-14384
UKI	-14385
▁Bun	-14386
▁ize	-14387
gosha	-14388
▁ICTR	-14389
byutse	-14390
techni	-14391
▁Iwawa	-14392
▁Jeune	-14393
▁Ndoli	-14394
▁Stars	-14395
▁kuban	-14396
amakara	-14397
zanguni	-14398
▁Bikira	-14399
▁Damien	-14400
▁Intare	-14401
▁magara	-14402
▁bihabwa	-14403
▁yasinye	-14404
Yongeyeho	-14405
[...]
